{
  "version": "1.0",
  "truncation": null,
  "padding": null,
  "added_tokens": [
    {
      "id": 0,
      "content": "<|start_of_text|>",
      "single_word": false,
      "lstrip": false,
      "rstrip": false,
      "normalized": false,
      "special": true
    },
    {
      "id": 1,
      "content": "<|end_of_text|>",
      "single_word": false,
      "lstrip": false,
      "rstrip": false,
      "normalized": false,
      "special": true
    },
    {
      "id": 2,
      "content": "<|pad|>",
      "single_word": false,
      "lstrip": false,
      "rstrip": false,
      "normalized": false,
      "special": true
    }
  ],
  "normalizer": null,
  "pre_tokenizer": {
    "type": "ByteLevel",
    "add_prefix_space": false,
    "trim_offsets": true,
    "use_regex": true
  },
  "post_processor": {
    "type": "ByteLevel",
    "add_prefix_space": true,
    "trim_offsets": false,
    "use_regex": true
  },
  "decoder": {
    "type": "ByteLevel",
    "add_prefix_space": true,
    "trim_offsets": true,
    "use_regex": true
  },
  "model": {
    "type": "BPE",
    "dropout": null,
    "unk_token": null,
    "continuing_subword_prefix": null,
    "end_of_word_suffix": null,
    "fuse_unk": false,
    "byte_fallback": false,
    "ignore_merges": false,
    "vocab": {
      "<|start_of_text|>": 0,
      "<|end_of_text|>": 1,
      "<|pad|>": 2,
      "!": 3,
      "\"": 4,
      "#": 5,
      "$": 6,
      "%": 7,
      "&": 8,
      "'": 9,
      "(": 10,
      ")": 11,
      "*": 12,
      "+": 13,
      ",": 14,
      "-": 15,
      ".": 16,
      "/": 17,
      "0": 18,
      "1": 19,
      "2": 20,
      "3": 21,
      "4": 22,
      "5": 23,
      "6": 24,
      "7": 25,
      "8": 26,
      "9": 27,
      ":": 28,
      ";": 29,
      "=": 30,
      ">": 31,
      "?": 32,
      "@": 33,
      "A": 34,
      "B": 35,
      "C": 36,
      "D": 37,
      "E": 38,
      "F": 39,
      "G": 40,
      "H": 41,
      "I": 42,
      "J": 43,
      "K": 44,
      "L": 45,
      "M": 46,
      "N": 47,
      "O": 48,
      "P": 49,
      "Q": 50,
      "R": 51,
      "S": 52,
      "T": 53,
      "U": 54,
      "V": 55,
      "W": 56,
      "X": 57,
      "Y": 58,
      "Z": 59,
      "[": 60,
      "\\": 61,
      "]": 62,
      "_": 63,
      "`": 64,
      "a": 65,
      "b": 66,
      "c": 67,
      "d": 68,
      "e": 69,
      "f": 70,
      "g": 71,
      "h": 72,
      "i": 73,
      "j": 74,
      "k": 75,
      "l": 76,
      "m": 77,
      "n": 78,
      "o": 79,
      "p": 80,
      "q": 81,
      "r": 82,
      "s": 83,
      "t": 84,
      "u": 85,
      "v": 86,
      "w": 87,
      "x": 88,
      "y": 89,
      "z": 90,
      "Ċ": 91,
      "Ġ": 92,
      "Ġa": 93,
      "in": 94,
      "Ġt": 95,
      "Ġo": 96,
      "Ġs": 97,
      "ing": 98,
      "it": 99,
      "Ġb": 100,
      "Ġw": 101,
      "he": 102,
      "Ġp": 103,
      "an": 104,
      "re": 105,
      "Ġc": 106,
      "le": 107,
      "er": 108,
      "Ġon": 109,
      "at": 110,
      "Ġof": 111,
      "Ġin": 112,
      "ar": 113,
      "ro": 114,
      "Ġthe": 115,
      "Ġf": 116,
      "is": 117,
      "Ġan": 118,
      "Ġm": 119,
      "Ġwit": 120,
      "Ġwith": 121,
      "Ġh": 122,
      "Ġand": 123,
      "Ġd": 124,
      "Ġg": 125,
      "al": 126,
      "en": 127,
      "Ġto": 128,
      "Ġl": 129,
      "Ġst": 130,
      "om": 131,
      "ra": 132,
      "ding": 133,
      "es": 134,
      "on": 135,
      "ck": 136,
      "ed": 137,
      "ow": 138,
      "Ġis": 139,
      "or": 140,
      "et": 141,
      "un": 142,
      "la": 143,
      "ir": 144,
      "Ġn": 145,
      "Ġman": 146,
      "as": 147,
      "ting": 148,
      "op": 149,
      "Ġsit": 150,
      "all": 151,
      "ch": 152,
      "up": 153,
      "ri": 154,
      "oo": 155,
      "Ġne": 156,
      "il": 157,
      "el": 158,
      "ot": 159,
      "ut": 160,
      "Ġwh": 161,
      "id": 162,
      "ur": 163,
      "Ġstan": 164,
      "Ġsitting": 165,
      "ol": 166,
      "ge": 167,
      "ers": 168,
      "Ġare": 169,
      "wo": 170,
      "ic": 171,
      "ard": 172,
      "us": 173,
      "ab": 174,
      "Ġth": 175,
      "ite": 176,
      "Ġat": 177,
      "king": 178,
      "ig": 179,
      "her": 180,
      "Ġco": 181,
      "ss": 182,
      "Ġbe": 183,
      "Ġsk": 184,
      "Ġe": 185,
      "ying": 186,
      "Ġre": 187,
      "Ġstanding": 188,
      "eop": 189,
      "eople": 190,
      "Ġtra": 191,
      "eb": 192,
      "ide": 193,
      "Ġro": 194,
      "oard": 195,
      "ad": 196,
      "xt": 197,
      "able": 198,
      "Ġwom": 199,
      "Ġnext": 200,
      "Ġk": 201,
      "ve": 202,
      "Ġdo": 203,
      "Ġpeople": 204,
      "Ġwhite": 205,
      "ver": 206,
      "lo": 207,
      "Ġpla": 208,
      "ile": 209,
      "ff": 210,
      "The": 211,
      "Ġit": 212,
      "Ġwoman": 213,
      "Ġhol": 214,
      "Ġtable": 215,
      "und": 216,
      "Ġpl": 217,
      "Ġstre": 218,
      "ome": 219,
      "Ġstreet": 220,
      "Ġfro": 221,
      "ood": 222,
      "Ġfi": 223,
      "Two": 224,
      "Ġbo": 225,
      "Ġholding": 226,
      "Ġri": 227,
      "ce": 228,
      "Ġthat": 229,
      "Ġpar": 230,
      "Ġsh": 231,
      "Ġla": 232,
      "own": 233,
      "Ġtop": 234,
      "Ġgro": 235,
      "Ġy": 236,
      "Ġgra": 237,
      "ate": 238,
      "erson": 239,
      "nt": 240,
      "Ġsm": 241,
      "Ġperson": 242,
      "Ġch": 243,
      "Ġbat": 244,
      "arge": 245,
      "oun": 246,
      "ant": 247,
      "Ġdown": 248,
      "Ġlarge": 249,
      "um": 250,
      "Ġwat": 251,
      "and": 252,
      "Ġcat": 253,
      "am": 254,
      "che": 255,
      "Ġup": 256,
      "Ġv": 257,
      "Ġpi": 258,
      "ion": 259,
      "Ġclo": 260,
      "eld": 261,
      "Ġfl": 262,
      "ach": 263,
      "Ġsn": 264,
      "ul": 265,
      "Ġout": 266,
      "Ġfield": 267,
      "Ġgroup": 268,
      "Ġdog": 269,
      "se": 270,
      "Ġnear": 271,
      "Ġsome": 272,
      "ke": 273,
      "Ġcar": 274,
      "Ġsnow": 275,
      "Ġten": 276,
      "nis": 277,
      "ign": 278,
      "Ġtrain": 279,
      "lack": 280,
      "Ġfront": 281,
      "Ġhis": 282,
      "Ġwal": 283,
      "ack": 284,
      "Ġpark": 285,
      "Ġtennis": 286,
      "ree": 287,
      "Ġra": 288,
      "Ġsmall": 289,
      "ug": 290,
      "Ġbus": 291,
      "st": 292,
      "Ġsur": 293,
      "Ġsign": 294,
      "ht": 295,
      "Ġbas": 296,
      "room": 297,
      "Ġroom": 298,
      "row": 299,
      "ure": 300,
      "Ġplate": 301,
      "Ġblack": 302,
      "Ġriding": 303,
      "ay": 304,
      "ind": 305,
      "ell": 306,
      "oung": 307,
      "Ġgrass": 308,
      "Ġside": 309,
      "Ġbl": 310,
      "Ġkit": 311,
      "ue": 312,
      "Ġbu": 313,
      "Ġwater": 314,
      "Ġby": 315,
      "Ġair": 316,
      "Ġph": 317,
      "im": 318,
      "Ġred": 319,
      "round": 320,
      "one": 321,
      "Ġloo": 322,
      "ain": 323,
      "ving": 324,
      "Ġsurf": 325,
      "board": 326,
      "Ġyoung": 327,
      "Ġbuil": 328,
      "ru": 329,
      "ph": 330,
      "eball": 331,
      "ffe": 332,
      "side": 333,
      "Ġbed": 334,
      "Ġbath": 335,
      "Ġbuilding": 336,
      "red": 337,
      "reen": 338,
      "ink": 339,
      "air": 340,
      "An": 341,
      "Ġbaseball": 342,
      "Ġhas": 343,
      "Ġtwo": 344,
      "Ġskat": 345,
      "Ġplay": 346,
      "ter": 347,
      "Ġwhile": 348,
      "Ġcom": 349,
      "Ġplaying": 350,
      "Ġwalking": 351,
      "pt": 352,
      "Ġskateb": 353,
      "ight": 354,
      "zz": 355,
      "Ġbathroom": 356,
      "yc": 357,
      "ds": 358,
      "Ġfor": 359,
      "Ġj": 360,
      "Ġfood": 361,
      "Ġgi": 362,
      "Ġher": 363,
      "ct": 364,
      "Ġblue": 365,
      "Ġhor": 366,
      "Ġot": 367,
      "chen": 368,
      "Ġpizz": 369,
      "Ġpo": 370,
      "aring": 371,
      "Ġother": 372,
      "ycle": 373,
      "Ġkitchen": 374,
      "Ġback": 375,
      "age": 376,
      "Ġwood": 377,
      "Ġskateboard": 378,
      "umb": 379,
      "Ġgreen": 380,
      "Ġmot": 381,
      "irt": 382,
      "ep": 383,
      "ie": 384,
      "Ġele": 385,
      "Ġparked": 386,
      "Ġpizza": 387,
      "Ġli": 388,
      "Ġboy": 389,
      "Ġgira": 390,
      "Ġball": 391,
      "ugh": 392,
      "Ġse": 393,
      "ran": 394,
      "Ġmotor": 395,
      "tle": 396,
      "Ġski": 397,
      "Ġlooking": 398,
      "Ġover": 399,
      "Ġle": 400,
      "Ġhe": 401,
      "get": 402,
      "ity": 403,
      "ture": 404,
      "Ġbeach": 405,
      "Ġeat": 406,
      "irl": 407,
      "ilet": 408,
      "Ġben": 409,
      "Ġwe": 410,
      "uple": 411,
      "Ġtoilet": 412,
      "phant": 413,
      "Ġclock": 414,
      "Ġbear": 415,
      "Ġca": 416,
      "Ġcouple": 417,
      "Ġz": 418,
      "Ġwa": 419,
      "Ġdes": 420,
      "rel": 421,
      "Ġelephant": 422,
      "ent": 423,
      "Ġcomp": 424,
      "Ġroad": 425,
      "Ġgirl": 426,
      "Ġpic": 427,
      "ame": 428,
      "ild": 429,
      "Ġcon": 430,
      "ane": 431,
      "led": 432,
      "Th": 433,
      "rella": 434,
      "Ġmen": 435,
      "Ġumb": 436,
      "ee": 437,
      "Ġumbrella": 438,
      "Ġcity": 439,
      "Ġflying": 440,
      "Ġdis": 441,
      "cks": 442,
      "Ġpicture": 443,
      "lass": 444,
      "ris": 445,
      "Ġwearing": 446,
      "Ġmotorc": 447,
      "dy": 448,
      "Ġboard": 449,
      "Ġtow": 450,
      "ptop": 451,
      "Ġplayer": 452,
      "ub": 453,
      "ous": 454,
      "Ġwind": 455,
      "Ġlaptop": 456,
      "Ġal": 457,
      "Ġshe": 458,
      "Ġsl": 459,
      "Ġmotorcycle": 460,
      "ill": 461,
      "ine": 462,
      "Ġgame": 463,
      "veral": 464,
      "ebra": 465,
      "pp": 466,
      "Ġlaying": 467,
      "ong": 468,
      "Ġfrom": 469,
      "Ġsits": 470,
      "Ġcomput": 471,
      "ĠA": 472,
      "Ġpas": 473,
      "ld": 474,
      "tain": 475,
      "rown": 476,
      "Ġchild": 477,
      "Ġwooden": 478,
      "Ġsand": 479,
      "Ġint": 480,
      "Ġbench": 481,
      "rough": 482,
      "Ġwindow": 483,
      "Ġzebra": 484,
      "Ġsink": 485,
      "Ġarea": 486,
      "ks": 487,
      "Ġglass": 488,
      "Ġr": 489,
      "Ġthrough": 490,
      "Ġtheir": 491,
      "Ġairp": 492,
      "Ġwall": 493,
      "Ġas": 494,
      "pen": 495,
      "risb": 496,
      "Ġchair": 497,
      "Ġtru": 498,
      "ellow": 499,
      "Ġaround": 500,
      "Ġeating": 501,
      "Ġboat": 502,
      "ase": 503,
      "Ġhorse": 504,
      "Ġcake": 505,
      "Ġbrown": 506,
      "ull": 507,
      "Ġlight": 508,
      "Ġyellow": 509,
      "Ġphone": 510,
      "risbee": 511,
      "Ġta": 512,
      "Ġsc": 513,
      "Ġhand": 514,
      "Ġcomputer": 515,
      "Ġund": 516,
      "oto": 517,
      "Ġunder": 518,
      "ort": 519,
      "Ġstop": 520,
      "Ġdesk": 521,
      "ice": 522,
      "Ġold": 523,
      "Ġbir": 524,
      "Ġde": 525,
      "Ġphoto": 526,
      "uit": 527,
      "Ġgiraffe": 528,
      "bo": 529,
      "way": 530,
      "Ġoutside": 531,
      "Ġopen": 532,
      "Ġlit": 533,
      "Ġve": 534,
      "Ġone": 535,
      "Ġtre": 536,
      "Ġsp": 537,
      "Ġtruck": 538,
      "Ġliving": 539,
      "cc": 540,
      "Ġsw": 541,
      "ross": 542,
      "Ġflo": 543,
      "Ġfire": 544,
      "Ġmo": 545,
      "Ġclose": 546,
      "ag": 547,
      "'s": 548,
      "Ġsurfboard": 549,
      "Ġte": 550,
      "There": 551,
      "vered": 552,
      "Ġban": 553,
      "ap": 554,
      "Ġtrees": 555,
      "Ġbow": 556,
      "ĠT": 557,
      "Ġtree": 558,
      "very": 559,
      "Ġcoun": 560,
      "Ġbun": 561,
      "ger": 562,
      "les": 563,
      "Ġeach": 564,
      "ation": 565,
      "Ġcovered": 566,
      "Ġlot": 567,
      "ady": 568,
      "Ġbri": 569,
      "Ġen": 570,
      "Ġdi": 571,
      "Ġcol": 572,
      "Ġcour": 573,
      "ore": 574,
      "Ġfil": 575,
      "Ġcell": 576,
      "qu": 577,
      "ses": 578,
      "hind": 579,
      "Three": 580,
      "Ġsuit": 581,
      "Ġbehind": 582,
      "Ġcow": 583,
      "Ġfilled": 584,
      "Ġbanan": 585,
      "Ġbowl": 586,
      "ground": 587,
      "Ġso": 588,
      "Ġvery": 589,
      "Ġoff": 590,
      "pla": 591,
      "Ġcourt": 592,
      "ves": 593,
      "Ġsky": 594,
      "uch": 595,
      "Ġcut": 596,
      "Ġoran": 597,
      "Ġits": 598,
      "ump": 599,
      "if": 600,
      "Ġflow": 601,
      "Ġfen": 602,
      "Ġlittle": 603,
      "ets": 604,
      "Ġinto": 605,
      "Ġshow": 606,
      "eat": 607,
      "ction": 608,
      "gether": 609,
      "Ġtogether": 610,
      "ors": 611,
      "Ġkite": 612,
      "Ġabo": 613,
      "Ġrack": 614,
      "ich": 615,
      "iew": 616,
      "ts": 617,
      "ly": 618,
      "ush": 619,
      "Ġsandw": 620,
      "Ġrun": 621,
      "Ġmoun": 622,
      "Se": 623,
      "Ġbackground": 624,
      "Ġbi": 625,
      "Ġairpl": 626,
      "Ġdri": 627,
      "alk": 628,
      "dle": 629,
      "Ġskis": 630,
      "ped": 631,
      "Ġshirt": 632,
      "Ġfrisbee": 633,
      "Ġinside": 634,
      "Several": 635,
      "ĠW": 636,
      "Ġstands": 637,
      "irro": 638,
      "Ġmirro": 639,
      "ry": 640,
      "Ġmirror": 641,
      "Ġbunch": 642,
      "Ġcouch": 643,
      "Ġpre": 644,
      "Ġdispla": 645,
      "Ġview": 646,
      "walk": 647,
      "cean": 648,
      "dr": 649,
      "Ġma": 650,
      "Ġocean": 651,
      "ffic": 652,
      "do": 653,
      "People": 654,
      "Ġbig": 655,
      "Ġhy": 656,
      "Ġgo": 657,
      "Ġpie": 658,
      "Ġcounter": 659,
      "ĠS": 660,
      "Ġsheep": 661,
      "Ġbird": 662,
      "drant": 663,
      "Ġhot": 664,
      "ches": 665,
      "rent": 666,
      "Ġhydrant": 667,
      "Ġapp": 668,
      "Ġswing": 669,
      "Ġmid": 670,
      "Ġveget": 671,
      "orm": 672,
      "Ġfence": 673,
      "IN": 674,
      "eddy": 675,
      "Man": 676,
      "the": 677,
      "other": 678,
      "Ġairplane": 679,
      "Ġfloor": 680,
      "uff": 681,
      "Ġhill": 682,
      "Ġdisplay": 683,
      "Ġsandwich": 684,
      "ang": 685,
      "Ġtraffic": 686,
      "ching": 687,
      "Ġanother": 688,
      "Ġref": 689,
      "Ġche": 690,
      "Ġhead": 691,
      "Ġteddy": 692,
      "fferent": 693,
      "Ġdirt": 694,
      "sing": 695,
      "ment": 696,
      "ted": 697,
      "Ġsidewalk": 698,
      "Ġvegetable": 699,
      "Ġtri": 700,
      "imal": 701,
      "ies": 702,
      "ner": 703,
      "Ġorange": 704,
      "ress": 705,
      "Ġstand": 706,
      "Ġwave": 707,
      "Ġmountain": 708,
      "Ġwomen": 709,
      "iling": 710,
      "Ġanimal": 711,
      "Ġplane": 712,
      "mp": 713,
      "Ġdifferent": 714,
      "ruit": 715,
      "Ġjump": 716,
      "Ġtower": 717,
      "ouse": 718,
      "Ġtracks": 719,
      "Ġmany": 720,
      "two": 721,
      "Ġmet": 722,
      "ook": 723,
      "Ġfe": 724,
      "Ġtall": 725,
      "ffes": 726,
      "Ġflowers": 727,
      "Ġvase": 728,
      "etting": 729,
      "Ġhit": 730,
      "Ġparking": 731,
      "Ġalong": 732,
      "Ġbab": 733,
      "ace": 734,
      "Ġracket": 735,
      "ip": 736,
      "Ġday": 737,
      "Ġfruit": 738,
      "Ġground": 739,
      "Ġtie": 740,
      "Ġsa": 741,
      "Ġim": 742,
      "Ġplat": 743,
      "ugg": 744,
      "Ġbaby": 745,
      "Ġhorses": 746,
      "Ġrid": 747,
      "te": 748,
      "ren": 749,
      "Ġbro": 750,
      "Ġvegetables": 751,
      "Ġsun": 752,
      "Ġgrassy": 753,
      "vel": 754,
      "Ġgraz": 755,
      "our": 756,
      "Ġar": 757,
      "Ġbeing": 758,
      "Ġbot": 759,
      "ket": 760,
      "ĠF": 761,
      "Ġfull": 762,
      "Ġgiraffes": 763,
      "Ġus": 764,
      "ick": 765,
      "Ġhang": 766,
      "ĠB": 767,
      "Ġsnowboard": 768,
      "hes": 769,
      "ey": 770,
      "ari": 771,
      "Ġrest": 772,
      "uring": 773,
      "Ġslop": 774,
      "Ġstation": 775,
      "Ġcars": 776,
      "rying": 777,
      "ated": 778,
      "Ġmiddle": 779,
      "ĠO": 780,
      "hing": 781,
      "ven": 782,
      "kes": 783,
      "ac": 784,
      "Ġstuff": 785,
      "Ġready": 786,
      "Some": 787,
      "Ġcl": 788,
      "Ġdress": 789,
      "Ġcup": 790,
      "Ġelephants": 791,
      "Ġbananas": 792,
      "ave": 793,
      "Ġdr": 794,
      "ĠC": 795,
      "Ġimage": 796,
      "urn": 797,
      "Ġun": 798,
      "igh": 799,
      "HE": 800,
      "Ġtaking": 801,
      "Ġzebras": 802,
      "ator": 803,
      "Ġcam": 804,
      "Ġhat": 805,
      "Ġbes": 806,
      "Ġthem": 807,
      "there": 808,
      "Ġbox": 809,
      "Ġpro": 810,
      "Ġcor": 811,
      "Ġgu": 812,
      "Ġdriving": 813,
      "Ġbike": 814,
      "Ġsigns": 815,
      "Ġcrow": 816,
      "Ġslope": 817,
      "oli": 818,
      "ult": 819,
      "rol": 820,
      "ade": 821,
      "Ġac": 822,
      "Ġlo": 823,
      "Ġcross": 824,
      "ched": 825,
      "Ġpiece": 826,
      "dge": 827,
      "Ġabove": 828,
      "Ġseveral": 829,
      "ler": 830,
      "Ġcrowd": 831,
      "Ġstuffed": 832,
      "ccoli": 833,
      "Ġwine": 834,
      "Ġsto": 835,
      "uggage": 836,
      "Ġacross": 837,
      "ess": 838,
      "Ġgrazing": 839,
      "Ġbeside": 840,
      "Ġad": 841,
      "Ġcont": 842,
      "Ġrefri": 843,
      "Ġprep": 844,
      "uts": 845,
      "Ġkn": 846,
      "Ġlong": 847,
      "Ġpass": 848,
      "Ġrefriger": 849,
      "Ġskiing": 850,
      "Ġluggage": 851,
      "Ġem": 852,
      "Ġsnowy": 853,
      "Ġtravel": 854,
      "This": 855,
      "Ġwor": 856,
      "Ġkey": 857,
      "Ġbroccoli": 858,
      "Ġhanging": 859,
      "ms": 860,
      "Ġcamer": 861,
      "th": 862,
      "Ġskate": 863,
      "Ġthree": 864,
      "Ġduring": 865,
      "Ġholds": 866,
      "cor": 867,
      "Ġdoor": 868,
      "Ġrefrigerator": 869,
      "iting": 870,
      "der": 871,
      "RE": 872,
      "Ġvari": 873,
      "Ġtele": 874,
      "Ġglasses": 875,
      "ii": 876,
      "Ġfri": 877,
      "Ġbag": 878,
      "Ġcamera": 879,
      "Ġtal": 880,
      "Ġdoing": 881,
      "Ġcle": 882,
      "Ġguy": 883,
      "ust": 884,
      "Ġkid": 885,
      "Ġcows": 886,
      "Ġbic": 887,
      "Ġdon": 888,
      "are": 889,
      "Ġpink": 890,
      "ak": 891,
      "Ġrem": 892,
      "Ġdoub": 893,
      "ning": 894,
      "ĠP": 895,
      "Ġbuildings": 896,
      "ese": 897,
      "Ġpast": 898,
      "Ġpole": 899,
      "Ġherd": 900,
      "Ġkeyboard": 901,
      "Ġoven": 902,
      "Ġrac": 903,
      "Ġpap": 904,
      "pty": 905,
      "Ġcolor": 906,
      "sh": 907,
      "ful": 908,
      "vis": 909,
      "Ġdecor": 910,
      "ING": 911,
      "Ġcontrol": 912,
      "Ġcutting": 913,
      "Ġpair": 914,
      "Ġper": 915,
      "Ġcorner": 916,
      "Ġgoing": 917,
      "Ġdouble": 918,
      "Ġtrack": 919,
      "Ġumbrellas": 920,
      "Ġcab": 921,
      "Ġwho": 922,
      "Ġstove": 923,
      "Ġser": 924,
      "Ġwalk": 925,
      "Ġpassen": 926,
      "Ġempty": 927,
      "Ġwatching": 928,
      "Ġtrick": 929,
      "Ġbicycle": 930,
      "vision": 931,
      "Ġlooks": 932,
      "Ġtelevision": 933,
      "rush": 934,
      "Ġhigh": 935,
      "Ġpot": 936,
      "Ġjumping": 937,
      "form": 938,
      "Ġchairs": 939,
      "Ġkites": 940,
      "Ġchildren": 941,
      "ccer": 942,
      "Ġbottle": 943,
      "ĠI": 944,
      "Ġtalking": 945,
      "Ġcur": 946,
      "Ġag": 947,
      "Ġmar": 948,
      "Ġbre": 949,
      "ten": 950,
      "Ġpit": 951,
      "Ġsoccer": 952,
      "Ġtraveling": 953,
      "Ġdogs": 954,
      "Ġposing": 955,
      "ideo": 956,
      "Ġme": 957,
      "Ġvideo": 958,
      "Ġsmiling": 959,
      "Ġswinging": 960,
      "ans": 961,
      "Ġsuitc": 962,
      "ght": 963,
      "some": 964,
      "Ġairport": 965,
      "Ġdin": 966,
      "Ġste": 967,
      "Ġset": 968,
      "Ġtopped": 969,
      "Ġremot": 970,
      "ĠĠ": 971,
      "Ġusing": 972,
      "pe": 973,
      "Ġbody": 974,
      "Ġboats": 975,
      "Ġgetting": 976,
      "ces": 977,
      "Ġcontain": 978,
      "Ġcabin": 979,
      "ire": 980,
      "oes": 981,
      "Ġpaper": 982,
      "Ġpain": 983,
      "ast": 984,
      "Ġagain": 985,
      "Ġpat": 986,
      "Ġanimals": 987,
      "Ġagainst": 988,
      "ping": 989,
      "Ġnight": 990,
      "oth": 991,
      "quet": 992,
      "Ġfore": 993,
      "Ġcolorful": 994,
      "Ġthrow": 995,
      "gs": 996,
      "ffee": 997,
      "Ġbrick": 998,
      "ft": 999,
      "leep": 1000,
      "Ġhome": 1001,
      "Ġmon": 1002,
      "Ġlady": 1003,
      "ud": 1004,
      "Ġall": 1005,
      "arding": 1006,
      "Ġrail": 1007,
      "Ġcoffee": 1008,
      "Ġbirds": 1009,
      "Ġite": 1010,
      "Ġcarrying": 1011,
      "Ġriver": 1012,
      "ive": 1013,
      "Ġdeck": 1014,
      "Ġcheese": 1015,
      "Ġplates": 1016,
      "cher": 1017,
      "Ġjet": 1018,
      "Ġhim": 1019,
      "Ġbanana": 1020,
      "omet": 1021,
      "ĠFrisbee": 1022,
      "aur": 1023,
      "Ġmeat": 1024,
      "Ġbar": 1025,
      "clo": 1026,
      "Ġpull": 1027,
      "aurant": 1028,
      "omething": 1029,
      "Ġtray": 1030,
      "Ġlea": 1031,
      "Ġbedroom": 1032,
      "ian": 1033,
      "Ġhouse": 1034,
      "iss": 1035,
      "Ġrestaurant": 1036,
      "Ġwaiting": 1037,
      "Ġdrink": 1038,
      "ored": 1039,
      "Ġsomething": 1040,
      "ark": 1041,
      "est": 1042,
      "Ġmotorcycles": 1043,
      "Ġbears": 1044,
      "Ġlights": 1045,
      "uth": 1046,
      "Ġlin": 1047,
      "Ġremote": 1048,
      "Ġmetal": 1049,
      "Ġshower": 1050,
      "ool": 1051,
      "ĠWii": 1052,
      "Ġshel": 1053,
      "Ġpol": 1054,
      "Ġha": 1055,
      "Ġcan": 1056,
      "Ġboo": 1057,
      "Ġplant": 1058,
      "alf": 1059,
      "Ġrunway": 1060,
      "Ġlots": 1061,
      "ced": 1062,
      "Ġplayers": 1063,
      "Ġface": 1064,
      "Ġor": 1065,
      "Ġracquet": 1066,
      "Ġtile": 1067,
      "clos": 1068,
      "Ġsleep": 1069,
      "Ġabout": 1070,
      "Ġitems": 1071,
      "Ġramp": 1072,
      "Ġvarious": 1073,
      "Ġrow": 1074,
      "Ġoutdo": 1075,
      "ars": 1076,
      "Ġenclos": 1077,
      "erse": 1078,
      "Ġclou": 1079,
      "Ġrunning": 1080,
      "Ġtoy": 1081,
      "Ġres": 1082,
      "ases": 1083,
      "ial": 1084,
      "gra": 1085,
      "Ġpile": 1086,
      "Ġmic": 1087,
      "Ġdough": 1088,
      "Ġbook": 1089,
      "oc": 1090,
      "Ġcarro": 1091,
      "Ġatt": 1092,
      "Ġline": 1093,
      "Ġstore": 1094,
      "ty": 1095,
      "Ġinterse": 1096,
      "Ġbusy": 1097,
      "Ġmouth": 1098,
      "Ġskier": 1099,
      "Ġrain": 1100,
      "Ġskateboarder": 1101,
      "Ġscreen": 1102,
      "ĠTHE": 1103,
      "Ġhel": 1104,
      "Ġintersection": 1105,
      "Ġhands": 1106,
      "Ġlying": 1107,
      "Ġpur": 1108,
      "Ġpassenger": 1109,
      "arm": 1110,
      "Ġtoward": 1111,
      "Ġdressed": 1112,
      "Ġce": 1113,
      "Ġslic": 1114,
      "ooking": 1115,
      "Ġmonit": 1116,
      "Ġsurfer": 1117,
      "IT": 1118,
      "Ġdoughn": 1119,
      "Ġseat": 1120,
      "Ġnumb": 1121,
      "Four": 1122,
      "we": 1123,
      "Ġsurfing": 1124,
      "Ġsuitcase": 1125,
      "Ġsil": 1126,
      "Ġlike": 1127,
      "ĠM": 1128,
      "ĠIS": 1129,
      "Ġwhe": 1130,
      "Ġrock": 1131,
      "Ġshown": 1132,
      "Ġphotogra": 1133,
      "ple": 1134,
      "ife": 1135,
      "Ġtub": 1136,
      "raw": 1137,
      "Ġpreparing": 1138,
      "ones": 1139,
      "Ġslice": 1140,
      "Ġrides": 1141,
      "Ġpan": 1142,
      "Ġbrush": 1143,
      "ges": 1144,
      "hic": 1145,
      "Ġhalf": 1146,
      "uce": 1147,
      "Ġgre": 1148,
      "Ġmale": 1149,
      "Ġdecker": 1150,
      "Ġmade": 1151,
      "Ġjack": 1152,
      "Ġpulling": 1153,
      "Ġthis": 1154,
      "issors": 1155,
      "to": 1156,
      "cl": 1157,
      "Ġlook": 1158,
      "ale": 1159,
      "Ġdark": 1160,
      "Ġsurround": 1161,
      "phone": 1162,
      "Ġty": 1163,
      "Ġgray": 1164,
      "Ġsleeping": 1165,
      "ading": 1166,
      "Ġbatter": 1167,
      "Ġmat": 1168,
      "Ġbridge": 1169,
      "Ġenclosure": 1170,
      "Ġno": 1171,
      "ny": 1172,
      "Ġnumber": 1173,
      "iz": 1174,
      "Ġzoo": 1175,
      "art": 1176,
      "AN": 1177,
      "Ġsilver": 1178,
      "ating": 1179,
      "Ġscissors": 1180,
      "Ġvehic": 1181,
      "Ġmicrow": 1182,
      "Ġtooth": 1183,
      "ĠL": 1184,
      "Ġcontroller": 1185,
      "Ġbet": 1186,
      "Ġpost": 1187,
      "Ġknife": 1188,
      "Ġhair": 1189,
      "ll": 1190,
      "ather": 1191,
      "ond": 1192,
      "Ġsurrounded": 1193,
      "ween": 1194,
      "Ġway": 1195,
      "Ġforest": 1196,
      "Ġbetween": 1197,
      "aning": 1198,
      "Ġjacket": 1199,
      "Ġdonuts": 1200,
      "Many": 1201,
      "Ġmicrowave": 1202,
      "ron": 1203,
      "Ġshowing": 1204,
      "ĠON": 1205,
      "gg": 1206,
      "AT": 1207,
      "Ġcolored": 1208,
      "Ġpill": 1209,
      "Ġmeal": 1210,
      "eath": 1211,
      "Ġphotograph": 1212,
      "Ġdecorated": 1213,
      "lic": 1214,
      "Ġlake": 1215,
      "iform": 1216,
      "Ġbread": 1217,
      "oman": 1218,
      "ash": 1219,
      "ĠD": 1220,
      "Ġlined": 1221,
      "Ġsal": 1222,
      "Ġcabinets": 1223,
      "Ġfew": 1224,
      "Ġwalks": 1225,
      "Ġcount": 1226,
      "ved": 1227,
      "Ġuniform": 1228,
      "Ġcarrots": 1229,
      "ne": 1230,
      "anes": 1231,
      "ĠN": 1232,
      "elf": 1233,
      "Ġblan": 1234,
      "ached": 1235,
      "pes": 1236,
      "Ġmouse": 1237,
      "Ġkids": 1238,
      "Ġam": 1239,
      "iture": 1240,
      "Ġbright": 1241,
      "ime": 1242,
      "urniture": 1243,
      "Ġscen": 1244,
      "Ġcand": 1245,
      "ries": 1246,
      "Ġfurniture": 1247,
      "Ġ\"": 1248,
      "Ġbran": 1249,
      "ows": 1250,
      "Ġdock": 1251,
      "Ġbuses": 1252,
      "Ġstick": 1253,
      "man": 1254,
      "Ġbooks": 1255,
      "ĠH": 1256,
      "Ġstri": 1257,
      "Ġpurple": 1258,
      "Ġboys": 1259,
      "ser": 1260,
      "old": 1261,
      "Ġhave": 1262,
      "Ġdish": 1263,
      "Ġpick": 1264,
      "Ġoutdoor": 1265,
      "Ġolder": 1266,
      "ĠTV": 1267,
      "Ġfour": 1268,
      "Ġcloudy": 1269,
      "atoes": 1270,
      "Ġshop": 1271,
      "olate": 1272,
      "Ġdisplayed": 1273,
      "Ġex": 1274,
      "Ġthrowing": 1275,
      "Ġincl": 1276,
      "pped": 1277,
      "Ġattached": 1278,
      "Ġgrey": 1279,
      "Ġpe": 1280,
      "Ġgirls": 1281,
      "Ġwaves": 1282,
      "Ġoranges": 1283,
      "ocolate": 1284,
      "Ġstat": 1285,
      "Ġfork": 1286,
      "day": 1287,
      "Ġcoming": 1288,
      "Ġmonitor": 1289,
      "Ġonto": 1290,
      "Ġleaning": 1291,
      "Ġmaking": 1292,
      "met": 1293,
      "ings": 1294,
      "ily": 1295,
      "Ġfla": 1296,
      "oon": 1297,
      "Ġwindows": 1298,
      "Ġclean": 1299,
      "inking": 1300,
      "Ġshelf": 1301,
      "ĠG": 1302,
      "Ġcrossing": 1303,
      "Ġperform": 1304,
      "ish": 1305,
      "Ġchocolate": 1306,
      "Ġstone": 1307,
      "Ġadult": 1308,
      "Ġsalad": 1309,
      "Ġskiers": 1310,
      "ance": 1311,
      "Ġho": 1312,
      "Ġdining": 1313,
      "Woman": 1314,
      "irth": 1315,
      "Ġrocks": 1316,
      "Ġpainted": 1317,
      "ble": 1318,
      "Ġscene": 1319,
      "irthday": 1320,
      "LE": 1321,
      "Ġhitting": 1322,
      "Ġdrinking": 1323,
      "Ġlush": 1324,
      "by": 1325,
      "Ġseen": 1326,
      "Ġwatch": 1327,
      "male": 1328,
      "Ġmeter": 1329,
      "Ġturn": 1330,
      "Ġcats": 1331,
      "Ġob": 1332,
      "Ġflower": 1333,
      "Ġbasket": 1334,
      "ĠOF": 1335,
      "de": 1336,
      "Ġwalls": 1337,
      "els": 1338,
      "Ġresting": 1339,
      "Ġpen": 1340,
      "Ġtowards": 1341,
      "Ġmarket": 1342,
      "Ġcook": 1343,
      "Ġcomm": 1344,
      "Ġspe": 1345,
      "Ġed": 1346,
      "Ġlamp": 1347,
      "Ġbirthday": 1348,
      "Ġelect": 1349,
      "ken": 1350,
      "int": 1351,
      "aut": 1352,
      "ublic": 1353,
      "Ġcountry": 1354,
      "top": 1355,
      "Ġeng": 1356,
      "Ġfre": 1357,
      "Ġmult": 1358,
      "ents": 1359,
      "ary": 1360,
      "Ġsunny": 1361,
      "Ġoffice": 1362,
      "Ġsetting": 1363,
      "Ġclear": 1364,
      "Ġfries": 1365,
      "Ġlay": 1366,
      "Ġfruits": 1367,
      "stic": 1368,
      "per": 1369,
      "eth": 1370,
      "Ġblanket": 1371,
      "Ġpublic": 1372,
      "Ġcatch": 1373,
      "Ġpa": 1374,
      "Ġtables": 1375,
      "Ġwork": 1376,
      "ĠIN": 1377,
      "Ġleaves": 1378,
      "autif": 1379,
      "ear": 1380,
      "Ġclot": 1381,
      "ER": 1382,
      "Ġmoving": 1383,
      "jo": 1384,
      "aching": 1385,
      "Ġstopped": 1386,
      "Ġapples": 1387,
      "Ġplastic": 1388,
      "Ġbeen": 1389,
      "mall": 1390,
      "Ġfemale": 1391,
      "Ġedge": 1392,
      "less": 1393,
      "Ġcatcher": 1394,
      "Ġteeth": 1395,
      "Ġass": 1396,
      "ats": 1397,
      "Ġsurfboards": 1398,
      "sp": 1399,
      "Ġhelmet": 1400,
      "Ġenjo": 1401,
      "Ġmountains": 1402,
      "Ġplatform": 1403,
      "Ġpath": 1404,
      "autiful": 1405,
      "Ġshot": 1406,
      "Ġtv": 1407,
      "Ġtom": 1408,
      "Ġnot": 1409,
      "Ġpictures": 1410,
      "Ġsmile": 1411,
      "Ġworking": 1412,
      "THE": 1413,
      "Ġbikes": 1414,
      "lection": 1415,
      "neath": 1416,
      "Ġride": 1417,
      "Ġstack": 1418,
      "Ġunderneath": 1419,
      "Ġdonut": 1420,
      "Ġshort": 1421,
      "Ġcre": 1422,
      "Ġtopping": 1423,
      "Ġtrying": 1424,
      "Ġtoothb": 1425,
      "Ġpart": 1426,
      "Black": 1427,
      "tered": 1428,
      "Ġsqu": 1429,
      "Ġbel": 1430,
      "ety": 1431,
      "Ġbranch": 1432,
      "Ġur": 1433,
      "Ġsub": 1434,
      "oot": 1435,
      "Ġcart": 1436,
      "hed": 1437,
      "Ġstatue": 1438,
      "Ġbeautiful": 1439,
      "Ġapple": 1440,
      "Ġshap": 1441,
      "Ġsomeone": 1442,
      "oll": 1443,
      "Ġdist": 1444,
      "Ġyard": 1445,
      "hered": 1446,
      "oarding": 1447,
      "Ġsnowboarder": 1448,
      "AR": 1449,
      "Ġbut": 1450,
      "Ġpolice": 1451,
      "Ġlap": 1452,
      "Ġbase": 1453,
      "Ġslices": 1454,
      "Someone": 1455,
      "Ġcarri": 1456,
      "Young": 1457,
      "ND": 1458,
      "Ġtime": 1459,
      "Ġskateboarding": 1460,
      "Ġplaced": 1461,
      "len": 1462,
      "Ġvan": 1463,
      "Ġwet": 1464,
      "Ġshows": 1465,
      "Ġperched": 1466,
      "Ġpitch": 1467,
      "Ġhaving": 1468,
      "run": 1469,
      "Ġpep": 1470,
      "ist": 1471,
      "Ġcellphone": 1472,
      "inal": 1473,
      "Ġfac": 1474,
      "Small": 1475,
      "Ġshore": 1476,
      "Ġdraw": 1477,
      "Ġcomputers": 1478,
      "Ġcase": 1479,
      "Ġsing": 1480,
      "Ġpieces": 1481,
      "wn": 1482,
      "ling": 1483,
      "Ġsho": 1484,
      "Ġpassing": 1485,
      "Ġnice": 1486,
      "this": 1487,
      "gers": 1488,
      "roup": 1489,
      "ally": 1490,
      "Ġwild": 1491,
      "ric": 1492,
      "Ġpitcher": 1493,
      "Ġwire": 1494,
      "Ġdire": 1495,
      "Ġsurface": 1496,
      "Ġput": 1497,
      "ares": 1498,
      "Ġgar": 1499,
      "ect": 1500,
      "Ġsandy": 1501,
      "dern": 1502,
      "Ġfresh": 1503,
      "Ġfam": 1504,
      "Ġappl": 1505,
      "Ġcooking": 1506,
      "Ġvehicle": 1507,
      "Ġeaten": 1508,
      "ITH": 1509,
      "THERE": 1510,
      "ĠWITH": 1511,
      "Ġdry": 1512,
      "Ġneck": 1513,
      "ĠR": 1514,
      "Ġlaptops": 1515,
      "Ġassort": 1516,
      "ix": 1517,
      "ition": 1518,
      "Ġvases": 1519,
      "Ġconc": 1520,
      "Ġmil": 1521,
      "Ġdoughnut": 1522,
      "Large": 1523,
      "Ġboards": 1524,
      "Ġbrushing": 1525,
      "Ġtypes": 1526,
      "ines": 1527,
      "Ġapplian": 1528,
      "Group": 1529,
      "Ġpizzas": 1530,
      "Ġdinner": 1531,
      "Ġhotel": 1532,
      "Ġreading": 1533,
      "Ġsauce": 1534,
      "Ġbeer": 1535,
      "Ġtan": 1536,
      "ery": 1537,
      "iple": 1538,
      "Ġtiled": 1539,
      "Ġtoppings": 1540,
      "inten": 1541,
      "Ġey": 1542,
      "intendo": 1543,
      "Ġarm": 1544,
      "bor": 1545,
      "Ġothers": 1546,
      "Ġtrun": 1547,
      "Ġland": 1548,
      "Ġwatches": 1549,
      "ĠE": 1550,
      "Ġaf": 1551,
      "iti": 1552,
      "Ġjust": 1553,
      "ca": 1554,
      "Ġfeat": 1555,
      "Ġtown": 1556,
      "icken": 1557,
      "Ġroll": 1558,
      "Ġengine": 1559,
      "Ġgat": 1560,
      "ides": 1561,
      "Ġthey": 1562,
      "eeding": 1563,
      "Ġtrains": 1564,
      "Ġsty": 1565,
      "ley": 1566,
      "Ġkind": 1567,
      "Ġfamily": 1568,
      "os": 1569,
      "ject": 1570,
      "Ġbenches": 1571,
      "Ġpret": 1572,
      "Ġtake": 1573,
      "Ġplants": 1574,
      "ized": 1575,
      "ins": 1576,
      "road": 1577,
      "Ġmounted": 1578,
      "Ġenjoying": 1579,
      "ffiti": 1580,
      "Ġcurb": 1581,
      "htub": 1582,
      "armac": 1583,
      "Ġnew": 1584,
      "Ġsingle": 1585,
      "Ġequ": 1586,
      "bb": 1587,
      "ures": 1588,
      "Ġdoughnuts": 1589,
      "Ġbathtub": 1590,
      "Ġsof": 1591,
      "Ġdistance": 1592,
      "Ġtarmac": 1593,
      "Ġpack": 1594,
      "ming": 1595,
      "Ġleft": 1596,
      "ely": 1597,
      "Ġmodern": 1598,
      "Ġgear": 1599,
      "Ġphones": 1600,
      "Ġafter": 1601,
      "cial": 1602,
      "Ġperforming": 1603,
      "que": 1604,
      "Ġchicken": 1605,
      "Ġsee": 1606,
      "Ġflat": 1607,
      "Ġpretty": 1608,
      "vers": 1609,
      "Ġgri": 1610,
      "Ġvariety": 1611,
      "Ġplace": 1612,
      "Ġshoes": 1613,
      "Ġwoods": 1614,
      "Ġgathered": 1615,
      "Ġpad": 1616,
      "Ġtricks": 1617,
      "Ġappliances": 1618,
      "Ġtrucks": 1619,
      "Ġwas": 1620,
      "Ġfenced": 1621,
      "Ġguys": 1622,
      "Ġcontaining": 1623,
      "Ġsail": 1624,
      "Ġhotdo": 1625,
      "Ġfly": 1626,
      "edest": 1627,
      "Ġend": 1628,
      "Ġbowls": 1629,
      "Ġswim": 1630,
      "Ġarran": 1631,
      "Ġglo": 1632,
      "Ġ.": 1633,
      "place": 1634,
      "Ġgraffiti": 1635,
      "Ġdesser": 1636,
      "Ġrice": 1637,
      "Ġcurtain": 1638,
      "Ġcandles": 1639,
      "ĠCh": 1640,
      "ages": 1641,
      "Ġflies": 1642,
      "three": 1643,
      "Ġstair": 1644,
      "Ġcarriage": 1645,
      "Ġbal": 1646,
      "Ġcute": 1647,
      "Ġpasture": 1648,
      "rete": 1649,
      "Ġfeeding": 1650,
      "Ġconcrete": 1651,
      "ĠAND": 1652,
      "Ġtoothbrush": 1653,
      "Ġtran": 1654,
      "Ġbelow": 1655,
      "Ġwell": 1656,
      "Ġfo": 1657,
      "Ġpoles": 1658,
      "Ġteam": 1659,
      "Ġbottles": 1660,
      "One": 1661,
      "pack": 1662,
      "Ġpoin": 1663,
      "uding": 1664,
      "head": 1665,
      "Ġspoon": 1666,
      "Ġpassengers": 1667,
      "ronic": 1668,
      "chool": 1669,
      "Ġclut": 1670,
      "Ġbags": 1671,
      "Ġmatch": 1672,
      "Ġrailroad": 1673,
      "ram": 1674,
      "enter": 1675,
      "anc": 1676,
      "Ġincluding": 1677,
      "uck": 1678,
      "Ġwii": 1679,
      "Ġind": 1680,
      "Ġright": 1681,
      "light": 1682,
      "Ġonion": 1683,
      "Ġdrinks": 1684,
      "Ġdirty": 1685,
      "Ġfoot": 1686,
      "iding": 1687,
      "Ġtakes": 1688,
      "Ġsteel": 1689,
      "Ġpillows": 1690,
      "OM": 1691,
      "Ġfireplace": 1692,
      "Ġsofa": 1693,
      "St": 1694,
      "ini": 1695,
      "Ġbreak": 1696,
      "ession": 1697,
      "Ġpul": 1698,
      "Ġcenter": 1699,
      "Ġamong": 1700,
      "intage": 1701,
      "ball": 1702,
      "Ġbackpack": 1703,
      "Ġschool": 1704,
      "Ġstep": 1705,
      "ads": 1706,
      "uches": 1707,
      "ips": 1708,
      "fe": 1709,
      "Ġstriped": 1710,
      "Ġpulled": 1711,
      "ĠNintendo": 1712,
      "Ġalone": 1713,
      "Ġpedest": 1714,
      "Ġcrowded": 1715,
      "Ġwr": 1716,
      "iches": 1717,
      "Ġelectronic": 1718,
      "Ġclos": 1719,
      "uge": 1720,
      "Ġnearby": 1721,
      "ĠST": 1722,
      "ied": 1723,
      "upp": 1724,
      "Ġbeds": 1725,
      "mb": 1726,
      "Ġcatching": 1727,
      "AL": 1728,
      "iv": 1729,
      "Ġwra": 1730,
      "ower": 1731,
      "ged": 1732,
      "Ġap": 1733,
      "urch": 1734,
      "Ġskateboards": 1735,
      "Ġfridge": 1736,
      "Ġtrunk": 1737,
      "Ġobject": 1738,
      "Ġpainting": 1739,
      "Ġcabinet": 1740,
      "ames": 1741,
      "Ġcontainer": 1742,
      "Ġloc": 1743,
      "Ġlet": 1744,
      "rist": 1745,
      "Ġequip": 1746,
      "Ġshaped": 1747,
      "Ġfeet": 1748,
      "ered": 1749,
      "Ġsinks": 1750,
      "Ġequipment": 1751,
      "ens": 1752,
      "Ġcattle": 1753,
      "Ġboxes": 1754,
      "Ġdirection": 1755,
      "anding": 1756,
      "Ġserved": 1757,
      "Ġcream": 1758,
      "ural": 1759,
      "Ġhuge": 1760,
      "Ġqu": 1761,
      "Ġplays": 1762,
      "fession": 1763,
      "lin": 1764,
      "Ġreaching": 1765,
      "Ġbushes": 1766,
      "stru": 1767,
      "Ġkne": 1768,
      "Ġpolar": 1769,
      "ical": 1770,
      "self": 1771,
      "Ġsandwiches": 1772,
      "Ġwhere": 1773,
      "Ġputting": 1774,
      "aking": 1775,
      "Ġmess": 1776,
      "Ġchurch": 1777,
      "Ġdeser": 1778,
      "Ġfloating": 1779,
      "Ġwait": 1780,
      "Ġsmiles": 1781,
      "Ġplanes": 1782,
      "fessional": 1783,
      "Ġstall": 1784,
      "Ġposes": 1785,
      "ual": 1786,
      "alm": 1787,
      "Ġatop": 1788,
      "Ġsticking": 1789,
      "Ġsuitcases": 1790,
      "land": 1791,
      "eling": 1792,
      "Ġround": 1793,
      "Ġtrail": 1794,
      "Ġgiant": 1795,
      "Ġtaken": 1796,
      "Ġprepares": 1797,
      "sc": 1798,
      "Ġboth": 1799,
      "ycl": 1800,
      "Ġserve": 1801,
      "Ġlays": 1802,
      "Ġaway": 1803,
      "Ġtomatoes": 1804,
      "reet": 1805,
      "Ġlegs": 1806,
      "wing": 1807,
      "Ġtowel": 1808,
      "Ġcover": 1809,
      "Ġhay": 1810,
      "Ġclothes": 1811,
      "Ġspace": 1812,
      "rus": 1813,
      "Ġstyle": 1814,
      "glass": 1815,
      "RO": 1816,
      "Ġgold": 1817,
      "Ġwed": 1818,
      "Ġblo": 1819,
      "ons": 1820,
      "Ġbicycles": 1821,
      "Ġrug": 1822,
      "Ġserving": 1823,
      "Ġdishes": 1824,
      "ercial": 1825,
      "Ġstaring": 1826,
      "elling": 1827,
      "Ġvintage": 1828,
      "ato": 1829,
      "Ġart": 1830,
      "aked": 1831,
      "hite": 1832,
      "iness": 1833,
      "owing": 1834,
      "Ġpotatoes": 1835,
      "Ġmas": 1836,
      "Ġcheck": 1837,
      "Ġsliced": 1838,
      "ident": 1839,
      "mas": 1840,
      "let": 1841,
      "Ġfa": 1842,
      "IS": 1843,
      "Ġpose": 1844,
      "Ġvehicles": 1845,
      "Ġstain": 1846,
      "fast": 1847,
      "Ġblen": 1848,
      "Ġoffic": 1849,
      "ber": 1850,
      "Ġpos": 1851,
      "Ġdev": 1852,
      "ashion": 1853,
      "Ġfoods": 1854,
      "Ġcement": 1855,
      "glasses": 1856,
      "Ġwhich": 1857,
      "people": 1858,
      "rench": 1859,
      "Ġshorts": 1860,
      "Ġthere": 1861,
      "Ġpool": 1862,
      "ĠSt": 1863,
      "ristmas": 1864,
      "out": 1865,
      "ise": 1866,
      "Ġdesign": 1867,
      "Ġreflection": 1868,
      "iny": 1869,
      "unch": 1870,
      "Ġstacked": 1871,
      "Ġbusiness": 1872,
      "OP": 1873,
      "Ġcra": 1874,
      "ward": 1875,
      "boarding": 1876,
      "ique": 1877,
      "vent": 1878,
      "aded": 1879,
      "Ġsmo": 1880,
      "ban": 1881,
      "vert": 1882,
      "ular": 1883,
      "Ġump": 1884,
      "Ġsame": 1885,
      "ils": 1886,
      "Ġear": 1887,
      "Ġtour": 1888,
      "ract": 1889,
      "ĠARE": 1890,
      "Ġwin": 1891,
      "Ġpillow": 1892,
      "Ġsubway": 1893,
      "Ġairplanes": 1894,
      "Ġcommercial": 1895,
      "urry": 1896,
      "ants": 1897,
      "Ġsoup": 1898,
      "io": 1899,
      "Ġdel": 1900,
      "Ġstraw": 1901,
      "Ġswings": 1902,
      "ists": 1903,
      "arden": 1904,
      "Ġprofessional": 1905,
      "Ġtrash": 1906,
      "Ġoutdoors": 1907,
      "AS": 1908,
      "Ġroo": 1909,
      "Ġmother": 1910,
      "Ġdocked": 1911,
      "ates": 1912,
      "Ġseated": 1913,
      "Person": 1914,
      "Ġoutf": 1915,
      "Ġumpire": 1916,
      "Ġlow": 1917,
      "Ġurinal": 1918,
      "Ġbreakfast": 1919,
      "Ġfarm": 1920,
      "Ġsurfers": 1921,
      "Ġdessert": 1922,
      "Ġgames": 1923,
      "Ġkitten": 1924,
      "Ġsunglasses": 1925,
      "Ġfrien": 1926,
      "Ġswimming": 1927,
      "ĠU": 1928,
      "Ġgarden": 1929,
      "Ġform": 1930,
      "Sk": 1931,
      "Ġflag": 1932,
      "Ġhard": 1933,
      "artment": 1934,
      "ults": 1935,
      "Ġsquare": 1936,
      "Ġcluttered": 1937,
      "Ġget": 1938,
      "Ġcouches": 1939,
      "Ġmultiple": 1940,
      "Ġpedestri": 1941,
      "Ġhighway": 1942,
      "struction": 1943,
      "Ġoverl": 1944,
      "itary": 1945,
      "ded": 1946,
      "ium": 1947,
      "kets": 1948,
      "Bo": 1949,
      "Ġblender": 1950,
      "Ġcooked": 1951,
      "Ġhotdog": 1952,
      "Ġfun": 1953,
      "Ġboarding": 1954,
      "Ġant": 1955,
      "Ġlone": 1956,
      "Ġwedding": 1957,
      "Ġclocks": 1958,
      "Ġpepper": 1959,
      "Ch": 1960,
      "Ġcontrollers": 1961,
      "Ġsay": 1962,
      "Ġmach": 1963,
      "icing": 1964,
      "Ġcro": 1965,
      "Ġdrives": 1966,
      "Ġhillside": 1967,
      "made": 1968,
      "Ġgather": 1969,
      "Ġkick": 1970,
      "liner": 1971,
      "EN": 1972,
      "Ġice": 1973,
      "read": 1974,
      "ĠTH": 1975,
      "Ġent": 1976,
      "iler": 1977,
      "pping": 1978,
      "Ġhar": 1979,
      "oni": 1980,
      "og": 1981,
      "Ġham": 1982,
      "Ġdoors": 1983,
      "Ġter": 1984,
      "Ġret": 1985,
      "Ġrestroom": 1986,
      "Ġrocky": 1987,
      "ES": 1988,
      "Ġledge": 1989,
      "Ġjumps": 1990,
      "sian": 1991,
      "Ġsignal": 1992,
      "Ġeyes": 1993,
      "ddle": 1994,
      "Ġceiling": 1995,
      "ou": 1996,
      "Ġwooded": 1997,
      "Ġfashion": 1998,
      "Ġdesktop": 1999,
      "OT": 2000,
      "Ġprod": 2001,
      "Ġlad": 2002,
      "Ġonions": 2003,
      "Ġlawn": 2004,
      "Ġappro": 2005,
      "Ġfacing": 2006,
      "Ġdoes": 2007,
      "Ġflock": 2008,
      "fore": 2009,
      "Ġmus": 2010,
      "Ġgr": 2011,
      "ng": 2012,
      "Ġeats": 2013,
      "OW": 2014,
      "Ġfall": 2015,
      "ned": 2016,
      "Ġacc": 2017,
      "ddler": 2018,
      "nic": 2019,
      "Ġpointing": 2020,
      "Ġstainless": 2021,
      "Clo": 2022,
      "ET": 2023,
      "Tra": 2024,
      "Ġfram": 2025,
      "Ġstairs": 2026,
      "Ġskies": 2027,
      "OR": 2028,
      "co": 2029,
      "ared": 2030,
      "Ġthings": 2031,
      "Ġshelves": 2032,
      "sting": 2033,
      "Ġfish": 2034,
      "uter": 2035,
      "Ġrace": 2036,
      "Ġdrawn": 2037,
      "Ġdesert": 2038,
      "ggs": 2039,
      "br": 2040,
      "ira": 2041,
      "ious": 2042,
      "mer": 2043,
      "Ġbefore": 2044,
      "irc": 2045,
      "Ġevent": 2046,
      "ears": 2047,
      "Ġinclud": 2048,
      "Ġut": 2049,
      "Ġext": 2050,
      "Ġclouds": 2051,
      "Ġcups": 2052,
      "Ġcr": 2053,
      "Ġprop": 2054,
      "iff": 2055,
      "Ġglove": 2056,
      "set": 2057,
      "ung": 2058,
      "Ġhold": 2059,
      "range": 2060,
      "Ġmake": 2061,
      "ier": 2062,
      "Ġcard": 2063,
      "eds": 2064,
      "arrow": 2065,
      "Ġsea": 2066,
      "Ġsteps": 2067,
      "Ġoutfit": 2068,
      "Ġdoll": 2069,
      "Ġcoat": 2070,
      "ON": 2071,
      "av": 2072,
      "icks": 2073,
      "Ġgate": 2074,
      "cted": 2075,
      "DING": 2076,
      "Zebra": 2077,
      "Ġfree": 2078,
      "ĠChristmas": 2079,
      "Ġsays": 2080,
      "Ġassortment": 2081,
      "IR": 2082,
      "Ġcla": 2083,
      "Ġtoddler": 2084,
      "Ġroof": 2085,
      "ative": 2086,
      "Ġcompet": 2087,
      "ĠV": 2088,
      "Ġvegg": 2089,
      "Ġneat": 2090,
      "Ġatte": 2091,
      "Ġcost": 2092,
      "cture": 2093,
      "Ġrackets": 2094,
      "Ġsteep": 2095,
      "Ġarranged": 2096,
      "Ġeggs": 2097,
      "ations": 2098,
      "rushes": 2099,
      "Ġarms": 2100,
      "tom": 2101,
      "Ġadvert": 2102,
      "Ġmilitary": 2103,
      "Ġdisc": 2104,
      "pers": 2105,
      "Men": 2106,
      "ns": 2107,
      "Ġinter": 2108,
      "LA": 2109,
      "go": 2110,
      "Ġsnowboarding": 2111,
      "Ġcostum": 2112,
      "Ġpond": 2113,
      "Ġmod": 2114,
      "Ġwheel": 2115,
      "Ġfig": 2116,
      "Ġfloors": 2117,
      "Ġcloth": 2118,
      "Ġmonitors": 2119,
      "ia": 2120,
      "Ġcirc": 2121,
      "aches": 2122,
      "phones": 2123,
      "many": 2124,
      "xing": 2125,
      "bs": 2126,
      "Ġtype": 2127,
      "Ġlanding": 2128,
      "ork": 2129,
      "so": 2130,
      "uc": 2131,
      "Ġparty": 2132,
      "cakes": 2133,
      "Ġtrailer": 2134,
      "Ġfrench": 2135,
      "Ġchop": 2136,
      "Ġgraze": 2137,
      "Ġbottom": 2138,
      "ring": 2139,
      "Ġpicnic": 2140,
      "ired": 2141,
      "key": 2142,
      "Ġoverlooking": 2143,
      "Ġcage": 2144,
      "Ġlunch": 2145,
      "Ġbroken": 2146,
      "az": 2147,
      "ĠK": 2148,
      "Ġtied": 2149,
      "Ġlett": 2150,
      "Ġkneeling": 2151,
      "Ġconstruction": 2152,
      "Ġboarder": 2153,
      "CK": 2154,
      "Ġdep": 2155,
      "ony": 2156,
      "Ġju": 2157,
      "pet": 2158,
      "Ġmust": 2159,
      "Ġnap": 2160,
      "ĠAsian": 2161,
      "Ġmini": 2162,
      "urf": 2163,
      "Ġnarrow": 2164,
      "Ġcolors": 2165,
      "Ġmix": 2166,
      "Ġtrans": 2167,
      "ancy": 2168,
      "Ġreads": 2169,
      "Ġclosed": 2170,
      "Ġwide": 2171,
      "Ġhous": 2172,
      "Ġskating": 2173,
      "Ġsteam": 2174,
      "Ġfight": 2175,
      "aseball": 2176,
      "Ġrider": 2177,
      "Ġadults": 2178,
      "Ġelectric": 2179,
      "Ġmachine": 2180,
      "Ġsides": 2181,
      "Ġnet": 2182,
      "Ġcap": 2183,
      "Vari": 2184,
      "ially": 2185,
      "Ġopp": 2186,
      "Ġport": 2187,
      "Ġindo": 2188,
      "Ġmag": 2189,
      "na": 2190,
      "Ġstru": 2191,
      "Ġbever": 2192,
      "Ġstra": 2193,
      "Ġpots": 2194,
      "ctor": 2195,
      "Ġhimself": 2196,
      "Ġoverhead": 2197,
      "Ġsweat": 2198,
      "uching": 2199,
      "Ġsale": 2200,
      "Ġsuits": 2201,
      "adow": 2202,
      "Ġket": 2203,
      "Ġplain": 2204,
      "Ġwalkway": 2205,
      "Ġleather": 2206,
      "Ġcakes": 2207,
      "Ġchef": 2208,
      "Ġmessy": 2209,
      "Five": 2210,
      "White": 2211,
      "Ġchain": 2212,
      "Ġcarpet": 2213,
      "Ġappears": 2214,
      "Ġpract": 2215,
      "Ġforeground": 2216,
      "Ġfeatures": 2217,
      "Ġtw": 2218,
      "Ġpasta": 2219,
      "rink": 2220,
      "Ġties": 2221,
      "Ġrela": 2222,
      "Ġgrill": 2223,
      "ĠTHAT": 2224,
      "Ġbite": 2225,
      "Ġsmart": 2226,
      "Ġorn": 2227,
      "ican": 2228,
      "Ġfancy": 2229,
      "Ġshade": 2230,
      "Ġveggies": 2231,
      "Ġi": 2232,
      "Ġpants": 2233,
      "Ġje": 2234,
      "Ġstret": 2235,
      "Ġsunset": 2236,
      "Ġtransit": 2237,
      "ushroom": 2238,
      "Ġgl": 2239,
      "Ġmug": 2240,
      "Ġtowels": 2241,
      "iers": 2242,
      "urger": 2243,
      "Ġfriends": 2244,
      "Ġgood": 2245,
      "Ġpier": 2246,
      "Ġblock": 2247,
      "ooter": 2248,
      "Ġbik": 2249,
      "Ġloaded": 2250,
      "ators": 2251,
      "Ġcarrot": 2252,
      "Ġassorted": 2253,
      "Ġtoilets": 2254,
      "Ġship": 2255,
      "Ġstill": 2256,
      "Ġheld": 2257,
      "Ġurban": 2258,
      "Ġshoul": 2259,
      "Ġsport": 2260,
      "Ġdevice": 2261,
      "Ġbeard": 2262,
      "Ġphotos": 2263,
      "OU": 2264,
      "ives": 2265,
      "Ġmushroom": 2266,
      "Ġclothing": 2267,
      "Ġpartially": 2268,
      "Ġsill": 2269,
      "Ġrefle": 2270,
      "Ġposition": 2271,
      "Ġmis": 2272,
      "Ġenter": 2273,
      "Ġpepperoni": 2274,
      "Ġbeneath": 2275,
      "Ġscooter": 2276,
      "Ġfashioned": 2277,
      "ĠMAN": 2278,
      "Ġdrive": 2279,
      "Ġpastries": 2280,
      "Cat": 2281,
      "Ġcas": 2282,
      "Ġhole": 2283,
      "Various": 2284,
      "ucks": 2285,
      "Ġaction": 2286,
      "rop": 2287,
      "Ġlies": 2288,
      "Ġleash": 2289,
      "IC": 2290,
      "laz": 2291,
      "Ġtoys": 2292,
      "Ġkinds": 2293,
      "house": 2294,
      "Ġwrapped": 2295,
      "ock": 2296,
      "Ġgets": 2297,
      "Ġvis": 2298,
      "Ġracing": 2299,
      "ef": 2300,
      "Ġmakes": 2301,
      "Close": 2302,
      "Ġstructure": 2303,
      "Gira": 2304,
      "Ġpalm": 2305,
      "Ġchips": 2306,
      "imb": 2307,
      "Ġcontains": 2308,
      "ib": 2309,
      "Ġrailing": 2310,
      "Ġhapp": 2311,
      "me": 2312,
      "She": 2313,
      "Ġgiving": 2314,
      "Ġrust": 2315,
      "Ġpaw": 2316,
      "ĠJ": 2317,
      "Ġsaus": 2318,
      "Ġpastry": 2319,
      "Ġharbor": 2320,
      "Baseball": 2321,
      "Ġsprink": 2322,
      "Ġtomato": 2323,
      "Ġwinter": 2324,
      "mon": 2325,
      "ost": 2326,
      "cket": 2327,
      "Ġmud": 2328,
      "Ġtoas": 2329,
      "Ġhouses": 2330,
      "Ġwets": 2331,
      "Ġpee": 2332,
      "Ġfeed": 2333,
      "Ġapartment": 2334,
      "Ġpetting": 2335,
      "ots": 2336,
      "Ġwhat": 2337,
      "Street": 2338,
      "be": 2339,
      "Ġsupp": 2340,
      "ighting": 2341,
      "Ġdoorway": 2342,
      "Ġwetsuit": 2343,
      "ike": 2344,
      "Ġbull": 2345,
      "Ġsmoke": 2346,
      "Ġincludes": 2347,
      "Red": 2348,
      "ible": 2349,
      "Ġsy": 2350,
      "Ġlettuce": 2351,
      "Ad": 2352,
      "Ġrests": 2353,
      "Ġfighter": 2354,
      "da": 2355,
      "ED": 2356,
      "ird": 2357,
      "agull": 2358,
      "Ġclass": 2359,
      "Ġisland": 2360,
      "Ġgarage": 2361,
      "cting": 2362,
      "itten": 2363,
      "olored": 2364,
      "Ġused": 2365,
      "..": 2366,
      "Old": 2367,
      "Ġsheet": 2368,
      "eller": 2369,
      "ught": 2370,
      "Ġuse": 2371,
      "Ġmodel": 2372,
      "Ġsort": 2373,
      "Ġlid": 2374,
      "Ġcomf": 2375,
      "Ġpeppers": 2376,
      "ĠĊ": 2377,
      "Ġleading": 2378,
      "yard": 2379,
      "Ġteen": 2380,
      "Ġbaked": 2381,
      "Ġfoll": 2382,
      "Ġfur": 2383,
      "Ġopened": 2384,
      "Ġmound": 2385,
      "Ġdecorative": 2386,
      "Ġstun": 2387,
      "Ġvanity": 2388,
      "Ġantique": 2389,
      "act": 2390,
      "ray": 2391,
      "acon": 2392,
      "Ġself": 2393,
      "Ġstreets": 2394,
      "Ġblond": 2395,
      "Ġleaf": 2396,
      "lage": 2397,
      "idential": 2398,
      "Ġmed": 2399,
      "Ġsiz": 2400,
      "Ġdra": 2401,
      "Ġwaits": 2402,
      "Ġlift": 2403,
      "Ġreturn": 2404,
      "Ġbeans": 2405,
      "Ġupside": 2406,
      "Ġrural": 2407,
      "Ġprepared": 2408,
      "Ġcontainers": 2409,
      "ps": 2410,
      "Ġutens": 2411,
      "ulpt": 2412,
      "Ġcandle": 2413,
      "Ġpropeller": 2414,
      "OO": 2415,
      "Ġpapers": 2416,
      "Ġcommuter": 2417,
      "KING": 2418,
      "Ġturned": 2419,
      "Ġwriting": 2420,
      "gon": 2421,
      "Ġshopping": 2422,
      "Ġru": 2423,
      "ering": 2424,
      "Ġmit": 2425,
      "Ġnood": 2426,
      "Ġhats": 2427,
      "Ġcele": 2428,
      "pl": 2429,
      "Ġproduce": 2430,
      "ige": 2431,
      "Ġbacon": 2432,
      "Ġpave": 2433,
      "scap": 2434,
      "hel": 2435,
      "Ġpans": 2436,
      "Ġheads": 2437,
      "Ġhood": 2438,
      "Ġsheets": 2439,
      "Ġalongside": 2440,
      "Ġbarn": 2441,
      "Ġnose": 2442,
      "ield": 2443,
      "ining": 2444,
      "unding": 2445,
      "Ġripe": 2446,
      "Ġsmal": 2447,
      "Ġpavement": 2448,
      "Child": 2449,
      "Pl": 2450,
      "Ġsculpt": 2451,
      "Ġsoda": 2452,
      "Ġfrosting": 2453,
      "yclist": 2454,
      "Ġjuice": 2455,
      "Ġpaddle": 2456,
      "Ġmeters": 2457,
      "YING": 2458,
      "bage": 2459,
      "Ġcond": 2460,
      "Ġstrawber": 2461,
      "Ġflight": 2462,
      "Ġbush": 2463,
      "Ġpatio": 2464,
      "Ġtur": 2465,
      "Ġpr": 2466,
      "erial": 2467,
      "Ġsnowboards": 2468,
      "Ġlog": 2469,
      "Ġlamb": 2470,
      "Ġblurry": 2471,
      "erly": 2472,
      "Ġtouching": 2473,
      "Ġstream": 2474,
      "Ġgroom": 2475,
      "Ġremotes": 2476,
      "Ġlaid": 2477,
      "Ġbranches": 2478,
      "Ġsmaller": 2479,
      "aper": 2480,
      "Ġmilk": 2481,
      "Ġdirections": 2482,
      "Ġsized": 2483,
      "ital": 2484,
      "Ġtea": 2485,
      "Ġresidential": 2486,
      "Ġpurse": 2487,
      "Ġbrightly": 2488,
      "Ġtank": 2489,
      "Ġsep": 2490,
      "chup": 2491,
      "Ġtiny": 2492,
      "Ġegg": 2493,
      "Ġseagull": 2494,
      "ĠTO": 2495,
      "Ġrainy": 2496,
      "Ġkicking": 2497,
      "Ġketchup": 2498,
      "Ġitself": 2499,
      "cker": 2500,
      "Ġparade": 2501,
      "In": 2502,
      "Ġmulti": 2503,
      "Ġurinals": 2504,
      "RA": 2505,
      "Ġbuilt": 2506,
      "Ġdisplaying": 2507,
      "ivid": 2508,
      "Ġterm": 2509,
      "Ġcostume": 2510,
      "kin": 2511,
      "Ġloading": 2512,
      "Ġwar": 2513,
      "Ġgen": 2514,
      "Ġpersons": 2515,
      "Ġdresser": 2516,
      "Ġriders": 2517,
      "Ġofficer": 2518,
      "bile": 2519,
      "ĠAT": 2520,
      "Ġmustard": 2521,
      "Ġcub": 2522,
      "Ġbeige": 2523,
      "Ġtent": 2524,
      "Ġflags": 2525,
      "ina": 2526,
      "ature": 2527,
      "Ġpersonal": 2528,
      "Ġsem": 2529,
      "Ġlines": 2530,
      "Ġterminal": 2531,
      "Cars": 2532,
      "ail": 2533,
      "ultiple": 2534,
      "lies": 2535,
      "ass": 2536,
      "Ġsliding": 2537,
      "Ġdeep": 2538,
      "Ġplatter": 2539,
      "AB": 2540,
      "Ġcloseup": 2541,
      "Ġenclosed": 2542,
      "Ġuniforms": 2543,
      "Ġutensils": 2544,
      "Ġow": 2545,
      "Ġrear": 2546,
      "ster": 2547,
      "Ġdecorations": 2548,
      "TING": 2549,
      "Ġpedestrians": 2550,
      "Ġmushrooms": 2551,
      "Ġapproaching": 2552,
      "ices": 2553,
      "ness": 2554,
      "Ġhall": 2555,
      "Ġleg": 2556,
      "Ġgoes": 2557,
      "Ġsailing": 2558,
      "Ġthrows": 2559,
      "Ġnoodles": 2560,
      "cra": 2561,
      "Ġpower": 2562,
      "Ġwaters": 2563,
      "Ġsausage": 2564,
      "Ġleans": 2565,
      "Ġuses": 2566,
      "scape": 2567,
      "Boy": 2568,
      "Ġrais": 2569,
      "ALL": 2570,
      "Ġsweater": 2571,
      "ien": 2572,
      "Ġpipe": 2573,
      "ath": 2574,
      "Ġcourse": 2575,
      "Ele": 2576,
      "Ġshoe": 2577,
      "Ġvest": 2578,
      "mpting": 2579,
      "Ġpupp": 2580,
      "Ġducks": 2581,
      "allow": 2582,
      "Ġhangs": 2583,
      "shirt": 2584,
      "OPLE": 2585,
      "Ġtrays": 2586,
      "Ġpickup": 2587,
      "Ġbutter": 2588,
      "yclists": 2589,
      "ividual": 2590,
      "Bl": 2591,
      "EOPLE": 2592,
      "Ġglaz": 2593,
      "ushing": 2594,
      "Ġladies": 2595,
      "CH": 2596,
      "IG": 2597,
      "Ġgreens": 2598,
      "Ġpulls": 2599,
      "Ġposted": 2600,
      "View": 2601,
      "ory": 2602,
      "Ġeye": 2603,
      "Ġwritten": 2604,
      "Ġmitt": 2605,
      "GE": 2606,
      "ior": 2607,
      "Ġgas": 2608,
      "ully": 2609,
      "Ġcollection": 2610,
      "Ġbeverage": 2611,
      "IL": 2612,
      "Ġdeli": 2613,
      "Ġgrowing": 2614,
      "Ġcons": 2615,
      "Ġattempting": 2616,
      "Ġbare": 2617,
      "Ġstad": 2618,
      "Ġliqu": 2619,
      "boat": 2620,
      "Ġruns": 2621,
      "Ġcrosswalk": 2622,
      "Ġexp": 2623,
      "ĠY": 2624,
      "Ġonly": 2625,
      "Ġfreez": 2626,
      "hill": 2627,
      "omot": 2628,
      "Ġpaint": 2629,
      "Ġsemi": 2630,
      "craft": 2631,
      "case": 2632,
      "Ġpasses": 2633,
      "Ġpres": 2634,
      "ĠBO": 2635,
      "Ġrolling": 2636,
      "Ġstadium": 2637,
      "lled": 2638,
      "Ġclimb": 2639,
      "Ġtransp": 2640,
      "Zebras": 2641,
      "Ġeld": 2642,
      "em": 2643,
      "nel": 2644,
      "Ġol": 2645,
      "rounding": 2646,
      "Ġtoast": 2647,
      "otor": 2648,
      "Ġsurrounding": 2649,
      "Ġindoor": 2650,
      "TH": 2651,
      "cing": 2652,
      "ute": 2653,
      "Ġlaugh": 2654,
      "Ġfried": 2655,
      "Ġrelaxing": 2656,
      "ues": 2657,
      "ware": 2658,
      "als": 2659,
      "Ġbending": 2660,
      "Ġcurled": 2661,
      "Ġornate": 2662,
      "Hor": 2663,
      "Ġcal": 2664,
      "Ġcurtains": 2665,
      "Ġneatly": 2666,
      "ton": 2667,
      "Ġstud": 2668,
      "uy": 2669,
      "Ġguit": 2670,
      "Ġrope": 2671,
      "Ġchar": 2672,
      "sted": 2673,
      "Ġfake": 2674,
      "Ġsupplies": 2675,
      "omotive": 2676,
      "Ġ1": 2677,
      "ishing": 2678,
      "Ġbride": 2679,
      "gan": 2680,
      "Ġjets": 2681,
      "Ġmissing": 2682,
      "Ġsiting": 2683,
      "Ġfive": 2684,
      "Ġmicro": 2685,
      "Ġlamps": 2686,
      "Ġtops": 2687,
      "Ġ2": 2688,
      "Ġab": 2689,
      "usk": 2690,
      "Ġaircraft": 2691,
      "Ġhandle": 2692,
      "ooked": 2693,
      "Ġpatter": 2694,
      "Ġhappy": 2695,
      "Ġduck": 2696,
      "Ġsticks": 2697,
      "rance": 2698,
      "eum": 2699,
      "Ġspot": 2700,
      "Ġbunches": 2701,
      "Ġpotted": 2702,
      "Ġwires": 2703,
      "ooks": 2704,
      "Girl": 2705,
      "Ġsim": 2706,
      "Ġlife": 2707,
      "Ġelderly": 2708,
      "Looking": 2709,
      "ctators": 2710,
      "Ġballs": 2711,
      "uffy": 2712,
      "Ġwheels": 2713,
      "Ġfalling": 2714,
      "Ġframe": 2715,
      "fl": 2716,
      "Ġif": 2717,
      "ittle": 2718,
      "Ġpor": 2719,
      "Ġtool": 2720,
      "Ġsnack": 2721,
      "Ġgoats": 2722,
      "Ġperforms": 2723,
      "Ġpaved": 2724,
      "cake": 2725,
      "Ġroses": 2726,
      "Ġbaskets": 2727,
      "Ġmost": 2728,
      "Ġindividual": 2729,
      "Ġpri": 2730,
      "Ġtail": 2731,
      "akers": 2732,
      "He": 2733,
      "Ġwithout": 2734,
      "ids": 2735,
      "Ġtelephone": 2736,
      "bed": 2737,
      "Ġbell": 2738,
      "oral": 2739,
      "Ġroadway": 2740,
      "Ġpiled": 2741,
      "Ġhow": 2742,
      "lish": 2743,
      "Ġtoss": 2744,
      "Ġstool": 2745,
      "Ġcapt": 2746,
      "Ġwagon": 2747,
      "Ġbookshel": 2748,
      "Ġspeed": 2749,
      "avy": 2750,
      "ID": 2751,
      "Ġairliner": 2752,
      "Ġtax": 2753,
      "ĠPEOPLE": 2754,
      "osite": 2755,
      "Ġlocomotive": 2756,
      "Ġsepar": 2757,
      "Ġgentle": 2758,
      "Ġdim": 2759,
      "cked": 2760,
      "Ġadj": 2761,
      "Ġpacked": 2762,
      "Ġarrange": 2763,
      "Ġpracticing": 2764,
      "umer": 2765,
      "ured": 2766,
      "ĠAmer": 2767,
      "Ġtalks": 2768,
      "Ġtiles": 2769,
      "dd": 2770,
      "Ġsection": 2771,
      "Ġjeans": 2772,
      "Multiple": 2773,
      "Ġfal": 2774,
      "Ġmotion": 2775,
      "Ġelectronics": 2776,
      "Ġsports": 2777,
      "Ġstunt": 2778,
      "Ġcelebr": 2779,
      "bow": 2780,
      "Ġsold": 2781,
      "Ġformation": 2782,
      "Ġaw": 2783,
      "Ġshallow": 2784,
      "redi": 2785,
      "Ġcupboard": 2786,
      "Ġshoulder": 2787,
      "Ġsculpture": 2788,
      "Ġflip": 2789,
      "Ġalso": 2790,
      "Ġremo": 2791,
      "Ġguitar": 2792,
      "Ġarrangement": 2793,
      "Ġpet": 2794,
      "Ġcycle": 2795,
      "Ġhere": 2796,
      "Ġmirrors": 2797,
      "Ġstar": 2798,
      "Motor": 2799,
      "Ġflown": 2800,
      "zza": 2801,
      "risbe": 2802,
      "Ġsoft": 2803,
      "Ġshirtless": 2804,
      "ĠSU": 2805,
      "isement": 2806,
      "Sheep": 2807,
      "Ġselfie": 2808,
      "WO": 2809,
      "ipped": 2810,
      "Ġtrol": 2811,
      "Ġfloral": 2812,
      "ERS": 2813,
      "Ġtoothbrushes": 2814,
      "Ġglazed": 2815,
      "Ġtong": 2816,
      "Ġgarbage": 2817,
      "Ġcovering": 2818,
      "redients": 2819,
      "line": 2820,
      "Ġbucket": 2821,
      "Ġhors": 2822,
      "aged": 2823,
      "Ġmuseum": 2824,
      "Ġopposite": 2825,
      "Ġselling": 2826,
      "Ġtoaster": 2827,
      "time": 2828,
      "Ġpow": 2829,
      "end": 2830,
      "Ġspread": 2831,
      "Ġfreezer": 2832,
      "ountain": 2833,
      "ĠSK": 2834,
      "Do": 2835,
      "We": 2836,
      "now": 2837,
      "Ġfoc": 2838,
      "Ġsniff": 2839,
      "Ġtravels": 2840,
      "ĠPLA": 2841,
      "Ġjetliner": 2842,
      "Ġpine": 2843,
      "Ġholder": 2844,
      "Ġexh": 2845,
      "Ġadvertisement": 2846,
      "cking": 2847,
      "cts": 2848,
      "Ġcones": 2849,
      "Ġpitching": 2850,
      "Ġpatch": 2851,
      "ABLE": 2852,
      "Ġing": 2853,
      "Ġcop": 2854,
      "ater": 2855,
      "asing": 2856,
      "Ġhits": 2857,
      "essor": 2858,
      "Ġtongue": 2859,
      "ging": 2860,
      "Ġfast": 2861,
      "Ġsprinkles": 2862,
      "Children": 2863,
      "Ġfing": 2864,
      "Ġfir": 2865,
      "abit": 2866,
      "eback": 2867,
      "Ġparas": 2868,
      "Ġdead": 2869,
      "Ġlandscape": 2870,
      "Com": 2871,
      "cycle": 2872,
      "icture": 2873,
      "Ġasleep": 2874,
      "Ġobjects": 2875,
      "Adult": 2876,
      "Ġfallen": 2877,
      "Guy": 2878,
      "OL": 2879,
      "Ġpushing": 2880,
      "ways": 2881,
      "Ġhorseback": 2882,
      "Ġicing": 2883,
      "Ġinst": 2884,
      "Ġstuck": 2885,
      "Ġheadphones": 2886,
      "Ġcorn": 2887,
      "Ġblankets": 2888,
      "ancing": 2889,
      "UT": 2890,
      "Ġke": 2891,
      "umin": 2892,
      "Ġbank": 2893,
      "Ġimages": 2894,
      "Ġhotdogs": 2895,
      "Ġcompetition": 2896,
      "icious": 2897,
      "ĠAmerican": 2898,
      "Ġ3": 2899,
      "Ġmuff": 2900,
      "Ġbuff": 2901,
      "Ġpictured": 2902,
      "ARD": 2903,
      "Ġingredients": 2904,
      "Ġhabit": 2905,
      "Ġmarble": 2906,
      "Ġhomemade": 2907,
      "Ġcounters": 2908,
      "Ġfaces": 2909,
      "Ġvisible": 2910,
      "\".": 2911,
      "ake": 2912,
      "Ġskirt": 2913,
      "Ġhum": 2914,
      "Ġmotorb": 2915,
      "Ġnewsp": 2916,
      "Ġpedestrian": 2917,
      "Ġpuppy": 2918,
      "aming": 2919,
      "Ġfluffy": 2920,
      "Ġstoplight": 2921,
      "Ġcoll": 2922,
      "usted": 2923,
      "Ġdownhill": 2924,
      "ĠSIT": 2925,
      "Ġcheckered": 2926,
      "EL": 2927,
      "four": 2928,
      "eboard": 2929,
      "Ġrolls": 2930,
      "Ġclimbing": 2931,
      "Cows": 2932,
      "app": 2933,
      "fully": 2934,
      "Ġmop": 2935,
      "Ġstring": 2936,
      "Ġreaches": 2937,
      "Ġwears": 2938,
      "Ġitem": 2939,
      "Ġentrance": 2940,
      "ount": 2941,
      "boy": 2942,
      "Ġfeaturing": 2943,
      "Ġstrawberries": 2944,
      "Ġhabitat": 2945,
      "Ġfrosted": 2946,
      "Ġballoon": 2947,
      "Ġneon": 2948,
      "Ġshirts": 2949,
      "Elephant": 2950,
      "Ġcer": 2951,
      "ising": 2952,
      "Ġcupcakes": 2953,
      "ATE": 2954,
      "Surf": 2955,
      "ked": 2956,
      "Ġtab": 2957,
      "Ġmoves": 2958,
      "REET": 2959,
      "Ġwhole": 2960,
      "bbing": 2961,
      "Ġgathering": 2962,
      "Ġfin": 2963,
      "oned": 2964,
      "Ġrep": 2965,
      "Ġpouring": 2966,
      "Ġleap": 2967,
      "ondon": 2968,
      "Ġcarries": 2969,
      "Ġrange": 2970,
      "Ġbit": 2971,
      "rot": 2972,
      "Ġang": 2973,
      "com": 2974,
      "lit": 2975,
      "wood": 2976,
      "Ġstickers": 2977,
      "Ġmixed": 2978,
      "Ġfeeder": 2979,
      "Ġmicrophone": 2980,
      "ished": 2981,
      "Ġcovers": 2982,
      "Ġchil": 2983,
      "amp": 2984,
      "Ġphotograp": 2985,
      "Ġobser": 2986,
      "Ġofficers": 2987,
      "Ġmagn": 2988,
      "Dog": 2989,
      "Ġname": 2990,
      "ĠBE": 2991,
      "asty": 2992,
      "ĠSTREET": 2993,
      "Ġnapkin": 2994,
      "Ġtransport": 2995,
      "Ġfocus": 2996,
      "Ġda": 2997,
      "several": 2998,
      "Ġorgan": 2999,
      "Ġfurnis": 3000,
      "Ġolives": 3001,
      "men": 3002,
      "Ġbatting": 3003,
      "Ġrows": 3004,
      "ĠSITTING": 3005,
      "Ġdump": 3006,
      "orter": 3007,
      "Ġbacks": 3008,
      "Ġcondim": 3009,
      "Ġfar": 3010,
      "Ġshiny": 3011,
      "Ġhaired": 3012,
      "ders": 3013,
      "right": 3014,
      "Ġgravel": 3015,
      "Ġslopes": 3016,
      "Ġexhib": 3017,
      "Ġfan": 3018,
      "Ġloung": 3019,
      "Ġblowing": 3020,
      "Ġwing": 3021,
      "Ġlab": 3022,
      "Ġconne": 3023,
      "Ġenjoy": 3024,
      "Traffic": 3025,
      "Kit": 3026,
      "Picture": 3027,
      "dling": 3028,
      "Ġhills": 3029,
      "Ġrainbow": 3030,
      "Ġbasketball": 3031,
      "Ġblonde": 3032,
      "uzz": 3033,
      "Ġaut": 3034,
      "ĠStreet": 3035,
      "iled": 3036,
      "Ġskateboarders": 3037,
      "Ġfigur": 3038,
      "Giraffes": 3039,
      "Snow": 3040,
      "Ġtun": 3041,
      "Ġopening": 3042,
      "Ġliquid": 3043,
      "Ġfountain": 3044,
      "Ġlighting": 3045,
      "Ġcargo": 3046,
      "ental": 3047,
      "Ġcookies": 3048,
      "Ġchecking": 3049,
      "Ġjar": 3050,
      "Ġcleaning": 3051,
      "Ġcontrols": 3052,
      "izza": 3053,
      "These": 3054,
      "Ġshadow": 3055,
      "Ġcomple": 3056,
      "Ġpotato": 3057,
      "Ġindic": 3058,
      "Ġlaughing": 3059,
      "Ġahead": 3060,
      "Ġbul": 3061,
      "Ġshru": 3062,
      "Ġblow": 3063,
      "Ġcardboard": 3064,
      "Ġaud": 3065,
      "rial": 3066,
      "ĠAir": 3067,
      "ugging": 3068,
      "Ġturning": 3069,
      "Ġshape": 3070,
      "Ġdesserts": 3071,
      "Ġdelicious": 3072,
      "Ġexten": 3073,
      "Ġprin": 3074,
      "ience": 3075,
      "Ġfirst": 3076,
      "Ġbeef": 3077,
      "vy": 3078,
      "ront": 3079,
      "Ġfrisbe": 3080,
      "Ġeven": 3081,
      "Ġtrav": 3082,
      "Ġgreat": 3083,
      "Ġspectators": 3084,
      "Ġhamb": 3085,
      "ited": 3086,
      "Ġbur": 3087,
      "Ġthin": 3088,
      "Ġarch": 3089,
      "Ġsnowboarders": 3090,
      "Ġbooth": 3091,
      "Ġbookshelf": 3092,
      "'t": 3093,
      "It": 3094,
      "Ġcatches": 3095,
      "Ġproc": 3096,
      "Ġfoil": 3097,
      "Ġcondiments": 3098,
      "py": 3099,
      "rit": 3100,
      "was": 3101,
      "Ġnumer": 3102,
      "Ġpige": 3103,
      "Ġdisplays": 3104,
      "Ġlocated": 3105,
      "Ġgolden": 3106,
      "Ġmuddy": 3107,
      "Little": 3108,
      "Ġsug": 3109,
      "Ġflooring": 3110,
      "Ġsaf": 3111,
      "Ġclay": 3112,
      "Ġentertain": 3113,
      "Ġrusty": 3114,
      "Ġtools": 3115,
      "Ġfishing": 3116,
      "Ġplaid": 3117,
      "stri": 3118,
      "Ġherself": 3119,
      "Ġcountertop": 3120,
      "ĠBen": 3121,
      "Ġnewspaper": 3122,
      "Ġtabby": 3123,
      "Ġexhibit": 3124,
      "Ġtravelling": 3125,
      "od": 3126,
      "Ġtire": 3127,
      "ently": 3128,
      "Ġgoat": 3129,
      "Ġseats": 3130,
      "ROU": 3131,
      "Ġtrolley": 3132,
      "iet": 3133,
      "erries": 3134,
      "amic": 3135,
      "Ġsomeones": 3136,
      "Ġcarts": 3137,
      "Ġpickle": 3138,
      "Ġsad": 3139,
      "ateboard": 3140,
      "Ġlar": 3141,
      "ables": 3142,
      "Ġforward": 3143,
      "Ġalley": 3144,
      "ustrial": 3145,
      "Ġdepic": 3146,
      "Ġminiature": 3147,
      "Ġcran": 3148,
      "Ġcust": 3149,
      "Ġspin": 3150,
      "ague": 3151,
      "ĠLondon": 3152,
      "olded": 3153,
      "ither": 3154,
      "Ġpin": 3155,
      "Ġbent": 3156,
      "Ġunmade": 3157,
      "Ġworkers": 3158,
      "spital": 3159,
      "anta": 3160,
      "Ġrusted": 3161,
      "Ġmobile": 3162,
      "Ġbunk": 3163,
      "Ġcowboy": 3164,
      "ĠBU": 3165,
      "thy": 3166,
      "Ġcere": 3167,
      "Ġbak": 3168,
      "Ġbou": 3169,
      "Ġbalc": 3170,
      "Ġhallway": 3171,
      "Ġsus": 3172,
      "Ġbrushes": 3173,
      "Ġeither": 3174,
      "ĠAN": 3175,
      "ĠTABLE": 3176,
      "Ġattire": 3177,
      "Ġgloves": 3178,
      "ockey": 3179,
      "car": 3180,
      "Ġden": 3181,
      "ried": 3182,
      "Ġthrown": 3183,
      "Ġchees": 3184,
      "ennis": 3185,
      "Ġyou": 3186,
      "Ġalm": 3187,
      "Ġmeadow": 3188,
      "Ġcomforter": 3189,
      "washer": 3190,
      "URE": 3191,
      "van": 3192,
      "eting": 3193,
      "Ġaccessor": 3194,
      "brary": 3195,
      "Ġsyst": 3196,
      "Blue": 3197,
      "olor": 3198,
      "icolored": 3199,
      "Ġsharing": 3200,
      "Ġrad": 3201,
      "Ġsec": 3202,
      "Ġspray": 3203,
      "Ġhelping": 3204,
      "Ġindustrial": 3205,
      "Ġposed": 3206,
      "Ġsize": 3207,
      "THIS": 3208,
      "look": 3209,
      "Ġcalm": 3210,
      "Ġstage": 3211,
      "Ġcafe": 3212,
      "ĠTRA": 3213,
      "Ġdishwasher": 3214,
      "Ġgrilled": 3215,
      "Ġcrust": 3216,
      "Ġsteeple": 3217,
      "Ġaccessories": 3218,
      "Co": 3219,
      "Ġic": 3220,
      "erry": 3221,
      "Ġstir": 3222,
      "Ġstares": 3223,
      "Ġfollowing": 3224,
      "Ġill": 3225,
      "Ġbiting": 3226,
      "here": 3227,
      "Ġnic": 3228,
      "Ġseems": 3229,
      "Ġwings": 3230,
      "attered": 3231,
      "Ġlif": 3232,
      "Ġdriver": 3233,
      "Ġsleeps": 3234,
      "decker": 3235,
      "Ġmagaz": 3236,
      "tress": 3237,
      "Ġneigh": 3238,
      "Ġcliff": 3239,
      "Ġhospital": 3240,
      "Ġceramic": 3241,
      "Brown": 3242,
      "FF": 3243,
      "Green": 3244,
      "ĠRE": 3245,
      "arf": 3246,
      "ĠWH": 3247,
      "Ġchest": 3248,
      "Ġcountryside": 3249,
      "ĠSTAN": 3250,
      "Food": 3251,
      "town": 3252,
      "work": 3253,
      "inese": 3254,
      "Ġown": 3255,
      "Ġodd": 3256,
      "Ġwords": 3257,
      "ITE": 3258,
      "mpt": 3259,
      "Ġcalf": 3260,
      "Ġwatering": 3261,
      "Ġchili": 3262,
      "hood": 3263,
      "Ġlane": 3264,
      "Ġchasing": 3265,
      "Ġseries": 3266,
      "Ġsteak": 3267,
      "Ġpicking": 3268,
      "Ġinterior": 3269,
      "Ġcustom": 3270,
      "Ġalmost": 3271,
      "Bus": 3272,
      "On": 3273,
      "Ġbaking": 3274,
      "Ġgroc": 3275,
      "Skateboard": 3276,
      "Ġtaxi": 3277,
      "Ġtasty": 3278,
      "Ġburger": 3279,
      "Ġhugging": 3280,
      "Ġgrapes": 3281,
      "Ġheading": 3282,
      "Ġmore": 3283,
      "Ġbagg": 3284,
      "Ġpaws": 3285,
      "Ġteenag": 3286,
      "Ġneighbor": 3287,
      "Ġband": 3288,
      "ushion": 3289,
      "ĠIT": 3290,
      "Ġdesigned": 3291,
      "Ġbalcony": 3292,
      "ere": 3293,
      "Ġado": 3294,
      "Ġmans": 3295,
      "Ġapron": 3296,
      "athroom": 3297,
      "Ġsystem": 3298,
      ".\"": 3299,
      "ew": 3300,
      "gress": 3301,
      "Ġgaz": 3302,
      "Ġlibrary": 3303,
      "Ġamongst": 3304,
      "Ġmostly": 3305,
      "ker": 3306,
      "Ġsle": 3307,
      "Ġcushion": 3308,
      "Ġcoach": 3309,
      "Ġhorns": 3310,
      "Ġmarina": 3311,
      "Ġteams": 3312,
      "Ġsuspen": 3313,
      "ral": 3314,
      "Ġnat": 3315,
      "Ġjumb": 3316,
      "Ġcanop": 3317,
      "Ġmattress": 3318,
      "Ġmulticolored": 3319,
      "Ġnicely": 3320,
      "To": 3321,
      "bble": 3322,
      "ux": 3323,
      "allic": 3324,
      "stand": 3325,
      "Ġjo": 3326,
      "ctive": 3327,
      "Ġmatching": 3328,
      "Horses": 3329,
      "Ġgentleman": 3330,
      "Ġbouquet": 3331,
      "zen": 3332,
      "anan": 3333,
      "Ġdig": 3334,
      "ility": 3335,
      "ument": 3336,
      "Ġjockey": 3337,
      "Ġcuts": 3338,
      "gged": 3339,
      "Ġiron": 3340,
      "Motorcycle": 3341,
      "ĠPLAYING": 3342,
      "Ġlarger": 3343,
      "ano": 3344,
      "isting": 3345,
      "Ġstraight": 3346,
      "Ġsniffing": 3347,
      "Ġav": 3348,
      "Ġtas": 3349,
      "owers": 3350,
      "andoned": 3351,
      "Ġvol": 3352,
      "Ġcomb": 3353,
      "Ġarrow": 3354,
      "Ġleaving": 3355,
      "Ġtunnel": 3356,
      "Ġaerial": 3357,
      "Ġribb": 3358,
      "Ġdryer": 3359,
      "Ġfunny": 3360,
      "Ġcollar": 3361,
      "Ġneighborhood": 3362,
      "NT": 3363,
      "Pizza": 3364,
      "Ġcig": 3365,
      "omen": 3366,
      "Ġread": 3367,
      "Ġpancakes": 3368,
      "Ġtrunks": 3369,
      "Ġmask": 3370,
      "Ġowner": 3371,
      "Ġsugar": 3372,
      "rage": 3373,
      "Ġconvers": 3374,
      "Ġprepare": 3375,
      "TURE": 3376,
      "ord": 3377,
      "ette": 3378,
      "Ġevery": 3379,
      "Ġfixt": 3380,
      "Ġheart": 3381,
      "Ġhose": 3382,
      "Closeup": 3383,
      "Ġbra": 3384,
      "irds": 3385,
      "Ġlemon": 3386,
      "Ġmetallic": 3387,
      "Ġtyping": 3388,
      "ĠDO": 3389,
      "ASS": 3390,
      "Ġadvertising": 3391,
      "Ġbuffet": 3392,
      "Ġbaggage": 3393,
      "ters": 3394,
      "Ġbill": 3395,
      "Ġonlook": 3396,
      "Ġstory": 3397,
      "Ġbeg": 3398,
      "quets": 3399,
      "Ġchewing": 3400,
      "Ġrailway": 3401,
      "Ġattempt": 3402,
      "IDE": 3403,
      "Ġhamburger": 3404,
      "Ġcru": 3405,
      "Ġdusk": 3406,
      "Ġtries": 3407,
      "Ġworks": 3408,
      "AM": 3409,
      "sel": 3410,
      "Ġtin": 3411,
      "Ġsets": 3412,
      "rain": 3413,
      "olf": 3414,
      "use": 3415,
      "Ġwashing": 3416,
      "Ġdriveway": 3417,
      "Ġbakery": 3418,
      "Ġnatural": 3419,
      "Ġjumbo": 3420,
      "Ġwarm": 3421,
      "ersey": 3422,
      "Ġthick": 3423,
      "hers": 3424,
      "Ġtractor": 3425,
      "Ġmove": 3426,
      "Ġresort": 3427,
      "Ġposter": 3428,
      "Ġabandoned": 3429,
      "Ġmotorbike": 3430,
      "SE": 3431,
      "Ġcool": 3432,
      "ption": 3433,
      "Ġweather": 3434,
      "Ġwinds": 3435,
      "Ġstatues": 3436,
      "Yellow": 3437,
      "front": 3438,
      "Ġcases": 3439,
      "Ġjersey": 3440,
      "Ġcold": 3441,
      "Ġaudience": 3442,
      "Bathroom": 3443,
      "aks": 3444,
      "oe": 3445,
      "Ġstrol": 3446,
      "Ġshining": 3447,
      "Ġforeign": 3448,
      "Ġrails": 3449,
      "Ġboots": 3450,
      "Ġhelm": 3451,
      "Ġfreshly": 3452,
      "OMAN": 3453,
      "Ġcircular": 3454,
      "Ġentertainment": 3455,
      "Banan": 3456,
      "Ġlim": 3457,
      "Ġprote": 3458,
      "Ġbars": 3459,
      "Ġcandy": 3460,
      "Ġdevices": 3461,
      "Ġtwin": 3462,
      "Ġconnected": 3463,
      "AD": 3464,
      "Ġpony": 3465,
      "Ġhung": 3466,
      "Ġrose": 3467,
      "Ġpara": 3468,
      "Ġheavy": 3469,
      "Ġlighthouse": 3470,
      "Ġprogress": 3471,
      "aret": 3472,
      "ĠPIC": 3473,
      "Ġformal": 3474,
      "Ġdimly": 3475,
      "Ġorganized": 3476,
      "ipping": 3477,
      "Ġris": 3478,
      "Ġfolded": 3479,
      "illa": 3480,
      "Ġdowntown": 3481,
      "boats": 3482,
      "ival": 3483,
      "Skiers": 3484,
      "Ġframed": 3485,
      "Ġcupboards": 3486,
      "Ġcigaret": 3487,
      "Fl": 3488,
      "white": 3489,
      "ightly": 3490,
      "Ġpropped": 3491,
      "ĠPL": 3492,
      "Elephants": 3493,
      "Ġhelmets": 3494,
      "Six": 3495,
      "ls": 3496,
      "rable": 3497,
      "Ġvend": 3498,
      "Ġdispen": 3499,
      "ĠPH": 3500,
      "Ġmass": 3501,
      "Ġmagnets": 3502,
      "Ġhiding": 3503,
      "Ġtor": 3504,
      "Ġleague": 3505,
      "Ġgrand": 3506,
      "Train": 3507,
      "Ġturkey": 3508,
      "Ġpop": 3509,
      "Ġbusses": 3510,
      "Ġcupcake": 3511,
      "Ġracquets": 3512,
      "Giraffe": 3513,
      "Ġtossing": 3514,
      "Ġsix": 3515,
      "Ġtablet": 3516,
      "Ġlevel": 3517,
      "Ġobst": 3518,
      "dered": 3519,
      "Ġworker": 3520,
      "Ġfinger": 3521,
      "coming": 3522,
      "ĠPICTURE": 3523,
      "alley": 3524,
      "Ġnintendo": 3525,
      "chair": 3526,
      "Ġupon": 3527,
      "Ġbackyard": 3528,
      "Ġring": 3529,
      "Ġserv": 3530,
      "Ġsailboat": 3531,
      "Ġquiet": 3532,
      "Ġlounging": 3533,
      "Ġmain": 3534,
      "inds": 3535,
      "Ġreflected": 3536,
      "ĠSTANDING": 3537,
      "Ġcanopy": 3538,
      "Ġobstac": 3539,
      "Ve": 3540,
      "Ġsunlight": 3541,
      "Ġraised": 3542,
      "Ġporch": 3543,
      "Ġadorable": 3544,
      "zy": 3545,
      "Ġsu": 3546,
      "Ġfab": 3547,
      "Ġfather": 3548,
      "Ġdot": 3549,
      "ades": 3550,
      "Ġparrot": 3551,
      "Ġpiano": 3552,
      "Ġdesc": 3553,
      "Ġcontents": 3554,
      "Ġbelt": 3555,
      "Ġillumin": 3556,
      "Color": 3557,
      "med": 3558,
      "Ġears": 3559,
      "Ġscarf": 3560,
      "vely": 3561,
      "Ġunus": 3562,
      "Ġbesides": 3563,
      "ggy": 3564,
      "Ġwilder": 3565,
      "Ġbearded": 3566,
      "vated": 3567,
      "Ġson": 3568,
      "Ġflood": 3569,
      "Ġlicking": 3570,
      "Ġmales": 3571,
      "Ġadjus": 3572,
      "Ġevening": 3573,
      "colored": 3574,
      "tru": 3575,
      "Ġpump": 3576,
      "Ġsha": 3577,
      "Ġpoint": 3578,
      "Ġskiis": 3579,
      "angu": 3580,
      "ĠCH": 3581,
      "Ġstorage": 3582,
      "Ġtoothp": 3583,
      "istic": 3584,
      "Ġcastle": 3585,
      "Women": 3586,
      "eled": 3587,
      "Ġfans": 3588,
      "Ġshut": 3589,
      "Ġgrazes": 3590,
      "Ġbarrel": 3591,
      "Ġhardwood": 3592,
      "LO": 3593,
      "ifferent": 3594,
      "ole": 3595,
      "Ġgran": 3596,
      "ider": 3597,
      "Ġmotorcyclist": 3598,
      "Ġscattered": 3599,
      "Ġdaytime": 3600,
      "Ġsaying": 3601,
      "Ġsilverware": 3602,
      "Ġseagulls": 3603,
      "Ġgrocery": 3604,
      "Ġwilderness": 3605,
      "Ass": 3606,
      "gy": 3607,
      "Ġoper": 3608,
      "Ġgolf": 3609,
      "Ġlangu": 3610,
      "Ġrec": 3611,
      "Ġlear": 3612,
      "uffed": 3613,
      "Ġguard": 3614,
      "Ġcrosses": 3615,
      "plane": 3616,
      "Ġseparate": 3617,
      "Ġbund": 3618,
      "ĠWI": 3619,
      "Ġorder": 3620,
      "ĠNE": 3621,
      "Ġsquat": 3622,
      "Ġlambs": 3623,
      "Ġpresent": 3624,
      "Ġspinach": 3625,
      "Ġonlookers": 3626,
      "Assort": 3627,
      "Tennis": 3628,
      "my": 3629,
      "Ġbay": 3630,
      "Ġfurry": 3631,
      "ending": 3632,
      "Ġshaking": 3633,
      "Ġmonkey": 3634,
      "Ġbalancing": 3635,
      "Ġchopped": 3636,
      "Ġfabric": 3637,
      "Ro": 3638,
      "Ġple": 3639,
      "Ġbats": 3640,
      "Ġword": 3641,
      "ĠPAR": 3642,
      "Ġprodu": 3643,
      "Ġstretching": 3644,
      "ĠWHITE": 3645,
      "mons": 3646,
      "Ġsla": 3647,
      "roccoli": 3648,
      "ĠIn": 3649,
      "Ġstrip": 3650,
      "Ġcookie": 3651,
      "Car": 3652,
      "iving": 3653,
      "ka": 3654,
      "ma": 3655,
      "outh": 3656,
      "Ġcollage": 3657,
      "Ġgogg": 3658,
      "ĠBAT": 3659,
      "Ġlogs": 3660,
      "ĠRO": 3661,
      "Ġsmoking": 3662,
      "Ġbikers": 3663,
      "Ġbikini": 3664,
      "Ġpeeking": 3665,
      "Be": 3666,
      "Sh": 3667,
      "arp": 3668,
      "ests": 3669,
      "ounge": 3670,
      "aker": 3671,
      "Ġamount": 3672,
      "Ġfootball": 3673,
      "Ġfauc": 3674,
      "ungle": 3675,
      "Ġcomfort": 3676,
      "Ġsizes": 3677,
      "tor": 3678,
      "Ġdust": 3679,
      "Ġplayed": 3680,
      "Ġjungle": 3681,
      "Ġintere": 3682,
      "ĠWOMAN": 3683,
      "Ġsavan": 3684,
      "Ġdrawers": 3685,
      "Ġbalan": 3686,
      "Ġawa": 3687,
      "Colorful": 3688,
      "Air": 3689,
      "Ġtalk": 3690,
      "anger": 3691,
      "althy": 3692,
      "Ġthumb": 3693,
      "Ġtag": 3694,
      "Ġswe": 3695,
      "Ġclutter": 3696,
      "Ġleafy": 3697,
      "Ġsuspended": 3698,
      "Ġgoggles": 3699,
      "ok": 3700,
      "resh": 3701,
      "Ġmom": 3702,
      "Ġscreens": 3703,
      "Ġfriend": 3704,
      "Ġcircle": 3705,
      "Ġwarning": 3706,
      "Ġmoped": 3707,
      "Ġvolley": 3708,
      "selves": 3709,
      "where": 3710,
      "its": 3711,
      "ret": 3712,
      "Ġasian": 3713,
      "ĠBig": 3714,
      "uddle": 3715,
      "ĠLOT": 3716,
      "Ġmusic": 3717,
      "Ġsafety": 3718,
      "Ġel": 3719,
      "unk": 3720,
      "ided": 3721,
      "Ġrece": 3722,
      "Ġlemons": 3723,
      "Ġunique": 3724,
      "Ġthemselves": 3725,
      "Ġdecoration": 3726,
      "Ġladder": 3727,
      "Ġindoors": 3728,
      "Ġdelivery": 3729,
      "Ġmagazine": 3730,
      "Ġcigarette": 3731,
      "Ġmel": 3732,
      "Ġhi": 3733,
      "Ġge": 3734,
      "Ġparach": 3735,
      "illing": 3736,
      "Ġador": 3737,
      "Ġpean": 3738,
      "ĠChinese": 3739,
      "ĠWII": 3740,
      "Ġfixing": 3741,
      "anda": 3742,
      "Ġsne": 3743,
      "ooters": 3744,
      "Ġsimple": 3745,
      "Ġribbon": 3746,
      "Birds": 3747,
      "rat": 3748,
      "Ġfair": 3749,
      "Ġfighting": 3750,
      "rib": 3751,
      "Ġware": 3752,
      "pple": 3753,
      "lers": 3754,
      "Ġpickles": 3755,
      "Ġchefs": 3756,
      "Ġfrisbees": 3757,
      "Ġsavanna": 3758,
      "dled": 3759,
      "Ġnuts": 3760,
      "aste": 3761,
      "pper": 3762,
      "Skateboarder": 3763,
      "Ġtus": 3764,
      "Ġthan": 3765,
      "Ġreally": 3766,
      "Ġplan": 3767,
      "Ġsurfs": 3768,
      "Ġcourtyard": 3769,
      "Ġfreight": 3770,
      "ASE": 3771,
      "Ph": 3772,
      "pass": 3773,
      "owed": 3774,
      "reline": 3775,
      "Ġcellphones": 3776,
      "Ġtowering": 3777,
      "Ġfigure": 3778,
      "Ġpeeled": 3779,
      "Ġmuffin": 3780,
      "Ġcomplete": 3781,
      "Ġlounge": 3782,
      "Ġstorm": 3783,
      "ilt": 3784,
      "Ġlean": 3785,
      "Ġshoreline": 3786,
      "Ġclassroom": 3787,
      "Ġcrane": 3788,
      "CE": 3789,
      "KE": 3790,
      "uri": 3791,
      "Ġbin": 3792,
      "Ġwash": 3793,
      "Ġcher": 3794,
      "att": 3795,
      "Ġfest": 3796,
      "Ġlink": 3797,
      "orting": 3798,
      "Ġneed": 3799,
      "Ġskin": 3800,
      "Ġgoal": 3801,
      "Ġunc": 3802,
      "Ġload": 3803,
      "Ġcloset": 3804,
      "Ġconsisting": 3805,
      "Ġballoons": 3806,
      "Ġfurnished": 3807,
      "Ġscooters": 3808,
      "Ġstops": 3809,
      "Ġvegetation": 3810,
      "Ġbarri": 3811,
      "Ġphotographs": 3812,
      "Ġsticker": 3813,
      "ĠHOL": 3814,
      "Ġcereal": 3815,
      "hol": 3816,
      "ze": 3817,
      "Ġtrim": 3818,
      "Ġobstacle": 3819,
      "af": 3820,
      "Ġcone": 3821,
      "ĠTWO": 3822,
      "Ġbuns": 3823,
      "ĠWAT": 3824,
      "ĠCOU": 3825,
      "Ġcanoe": 3826,
      "Ġshops": 3827,
      "Ġpoints": 3828,
      "Ġbeverages": 3829,
      "Kitchen": 3830,
      "Ġprocess": 3831,
      "Ġtusks": 3832,
      "Ġinf": 3833,
      "Ġkitty": 3834,
      "Ġcomes": 3835,
      "Ġwear": 3836,
      "Ġsoap": 3837,
      "Ġpairs": 3838,
      "Ġfoggy": 3839,
      "Boats": 3840,
      "covered": 3841,
      "Hot": 3842,
      "gu": 3843,
      "xes": 3844,
      "Ġslightly": 3845,
      "Ġproject": 3846,
      "aw": 3847,
      "hou": 3848,
      "Ġstr": 3849,
      "rimp": 3850,
      "Ġdesigns": 3851,
      "wards": 3852,
      "Ġrustic": 3853,
      "Ġsoftball": 3854,
      "gie": 3855,
      "Ġputs": 3856,
      "Ġarena": 3857,
      "Ġheaded": 3858,
      "Ġarri": 3859,
      "Ġhaul": 3860,
      "Ġspeakers": 3861,
      "Ġgrin": 3862,
      "ti": 3863,
      "Ġ4": 3864,
      "Ġburn": 3865,
      "Ġberries": 3866,
      "riental": 3867,
      "Ġreg": 3868,
      "oney": 3869,
      "Ġbedsp": 3870,
      "Ġhealthy": 3871,
      "Ġskyline": 3872,
      "ifl": 3873,
      "Ġlob": 3874,
      "Ġmeeting": 3875,
      "Ġpedestal": 3876,
      "Ġpositioned": 3877,
      "ĠBOARD": 3878,
      "ERSON": 3879,
      "tie": 3880,
      "za": 3881,
      "raying": 3882,
      "Ġbathing": 3883,
      "Ġcare": 3884,
      "Ġwading": 3885,
      "Ġknit": 3886,
      "Ġslicing": 3887,
      "ANT": 3888,
      "Ġnoteb": 3889,
      "Ġapproaches": 3890,
      "Ġobserving": 3891,
      "Ġfixtures": 3892,
      "ĠDOG": 3893,
      "Bananas": 3894,
      "Ġdispenser": 3895,
      "Ġfat": 3896,
      "Ġstrange": 3897,
      "illage": 3898,
      "Ġath": 3899,
      "Ġconve": 3900,
      "Ġspac": 3901,
      "ĠEng": 3902,
      "Ġpaddling": 3903,
      "Ġtoothpaste": 3904,
      "iflower": 3905,
      "uro": 3906,
      "Ġact": 3907,
      "Ġbugg": 3908,
      "Ġmall": 3909,
      "Ġtho": 3910,
      "Ġbeak": 3911,
      "Ġgrabbing": 3912,
      "Ġvalley": 3913,
      "Ġsideways": 3914,
      "Ġwaterway": 3915,
      "Ġcrossed": 3916,
      "Ġmaterial": 3917,
      "AND": 3918,
      "Ġpeace": 3919,
      "Ġcatchers": 3920,
      "ROOM": 3921,
      "ta": 3922,
      "Ġfed": 3923,
      "Ġvillage": 3924,
      "uliflower": 3925,
      "Kids": 3926,
      "Pair": 3927,
      "Ġwand": 3928,
      "Ġcans": 3929,
      "ope": 3930,
      "Ġreach": 3931,
      "Ġshrimp": 3932,
      "ama": 3933,
      "toon": 3934,
      "Ġreflecting": 3935,
      "IGH": 3936,
      "Ġleaping": 3937,
      "Ġattempts": 3938,
      "Ġfaucet": 3939,
      "Different": 3940,
      "shing": 3941,
      "ws": 3942,
      "oose": 3943,
      "icle": 3944,
      "ebo": 3945,
      "Ġcaught": 3946,
      "That": 3947,
      "Ġspla": 3948,
      "Ġpigeons": 3949,
      "Ġilluminated": 3950,
      "ĊĊ": 3951,
      "Ġtrough": 3952,
      "Ġlis": 3953,
      "unches": 3954,
      "Ġpens": 3955,
      "ALKING": 3956,
      "ĠHOLDING": 3957,
      "Broccoli": 3958,
      "Fresh": 3959,
      "icop": 3960,
      "Ġdesks": 3961,
      "Ġalco": 3962,
      "Ġnumbers": 3963,
      "ĠHIS": 3964,
      "Ġdirect": 3965,
      "ucumb": 3966,
      "Ġsnacks": 3967,
      "Stop": 3968,
      "VER": 3969,
      "gant": 3970,
      "Ġtight": 3971,
      "rots": 3972,
      "Ġfol": 3973,
      "alt": 3974,
      "Ġwaving": 3975,
      "rence": 3976,
      "Ġgoods": 3977,
      "OOD": 3978,
      "Ġkeep": 3979,
      "Ġrepair": 3980,
      "Ġvendor": 3981,
      "Ġbedspread": 3982,
      "Ġwre": 3983,
      "Ġdet": 3984,
      "Ġleads": 3985,
      "Ġconfe": 3986,
      "ift": 3987,
      "Ġhelicop": 3988,
      "Ġexc": 3989,
      "Ġpatterned": 3990,
      "Ġconversation": 3991,
      "een": 3992,
      "Ġcucumb": 3993,
      "Ġany": 3994,
      "Ġkay": 3995,
      "Ġraft": 3996,
      "Ġforks": 3997,
      "Ġherding": 3998,
      "Ġknives": 3999,
      "Ġexam": 4000,
      "Ġlayer": 4001,
      "Ġbutton": 4002,
      "urope": 4003,
      "ined": 4004,
      "Ġkis": 4005,
      "ĠApple": 4006,
      "ĠSM": 4007,
      "ĠSanta": 4008,
      "Plate": 4009,
      "Snowboard": 4010,
      "Ġservice": 4011,
      "Ġflooded": 4012,
      "Ġgranite": 4013,
      "urious": 4014,
      "Ġ,": 4015,
      "Ġtrop": 4016,
      "Ġcobble": 4017,
      "Ġplaza": 4018,
      "Ġcauliflower": 4019,
      "Ġtags": 4020,
      "ĠFR": 4021,
      "Ġfully": 4022,
      "OTO": 4023,
      "Ġslee": 4024,
      "ula": 4025,
      "view": 4026,
      "Ġpanda": 4027,
      "Ġmuch": 4028,
      "Ġhad": 4029,
      "Ġslow": 4030,
      "Ġclus": 4031,
      "Ġdrawing": 4032,
      "Ġterrain": 4033,
      "Ġsecond": 4034,
      "mo": 4035,
      "port": 4036,
      "Ġins": 4037,
      "amond": 4038,
      "Ġlighted": 4039,
      "ific": 4040,
      "icker": 4041,
      "Ġnightstand": 4042,
      "Ġcheesy": 4043,
      "Couple": 4044,
      "ĠBATH": 4045,
      "cast": 4046,
      "Ġwithin": 4047,
      "Ġbasin": 4048,
      "Ġheard": 4049,
      "Ġdeer": 4050,
      "Ġdried": 4051,
      "Ġmarried": 4052,
      "Ġboogie": 4053,
      "Ġstrapped": 4054,
      "ctory": 4055,
      "Ġpeanut": 4056,
      "dition": 4057,
      "ination": 4058,
      "ities": 4059,
      "Ġpus": 4060,
      "labor": 4061,
      "ooth": 4062,
      "Ġgreenery": 4063,
      "Ġsplit": 4064,
      "Ġmov": 4065,
      "Ġmaj": 4066,
      "cloth": 4067,
      "ĠGIR": 4068,
      "Ġspoons": 4069,
      "Ġteenager": 4070,
      "Ġtasting": 4071,
      "ĠPHOTO": 4072,
      "Ġconvey": 4073,
      "Ġhelicopter": 4074,
      "Ġtropical": 4075,
      "Male": 4076,
      "kins": 4077,
      "Ġfry": 4078,
      "Ġroaming": 4079,
      "Ġupright": 4080,
      "acks": 4081,
      "Ġseas": 4082,
      "Ġconso": 4083,
      "Ġdiamond": 4084,
      "angular": 4085,
      "Ġquilt": 4086,
      "ughter": 4087,
      "Ġowl": 4088,
      "Ġstudents": 4089,
      "Ġpattern": 4090,
      "ILE": 4091,
      "black": 4092,
      "Ġes": 4093,
      "Ġrecor": 4094,
      "Ġtablecloth": 4095,
      "uld": 4096,
      "Ġoverpass": 4097,
      "uble": 4098,
      "Ġspraying": 4099,
      "Ġunf": 4100,
      "Ġcostumes": 4101,
      "Ġclassic": 4102,
      "Ġmassive": 4103,
      "Ġlisten": 4104,
      "Don": 4105,
      "val": 4106,
      "ĠHE": 4107,
      "Ġbad": 4108,
      "Ġmin": 4109,
      "Ġhip": 4110,
      "Ġelegant": 4111,
      "Ġcolle": 4112,
      "Ġkeys": 4113,
      "gging": 4114,
      "Ġbald": 4115,
      "Ġcelebrating": 4116,
      "Ġinteresting": 4117,
      "Pla": 4118,
      "Pol": 4119,
      "TWO": 4120,
      "dles": 4121,
      "hand": 4122,
      "Ġbor": 4123,
      "Ġdrying": 4124,
      "Ġskater": 4125,
      "Ġturns": 4126,
      "Surfer": 4127,
      "Ġunusual": 4128,
      "drop": 4129,
      "fts": 4130,
      "Ġhal": 4131,
      "Ġhanding": 4132,
      "Ġsite": 4133,
      "Ġstance": 4134,
      "Ġatten": 4135,
      "Ġcoast": 4136,
      "Ġgives": 4137,
      "Ġposs": 4138,
      "Ġstopping": 4139,
      "Ġcellular": 4140,
      "Ġdoubles": 4141,
      "Ġgarnis": 4142,
      "Ġwrapper": 4143,
      "Ġfreeway": 4144,
      "IGN": 4145,
      "Ġtransportation": 4146,
      "ST": 4147,
      "Sc": 4148,
      "no": 4149,
      "ĠThe": 4150,
      "Ġostri": 4151,
      "Ġmay": 4152,
      "oored": 4153,
      "Ġrecl": 4154,
      "apan": 4155,
      "Ġpolka": 4156,
      "Ġcanal": 4157,
      "Ġpeel": 4158,
      "Ġportra": 4159,
      "Ġfigurine": 4160,
      "Ġlanguage": 4161,
      "Ġwill": 4162,
      "Ġrol": 4163,
      "Ġtents": 4164,
      "Ġairbor": 4165,
      "Ġdiv": 4166,
      "ĠCan": 4167,
      "Ġknee": 4168,
      "Ġdrawer": 4169,
      "Ġsailboats": 4170,
      "Stuffed": 4171,
      "Ġfactory": 4172,
      "Ġwindsurf": 4173,
      "Ġadjusting": 4174,
      "Ġbuggy": 4175,
      "ACH": 4176,
      "bag": 4177,
      "Ġcome": 4178,
      "Ġhooked": 4179,
      "Ġmotorcyclists": 4180,
      "Ġtext": 4181,
      "ĠFI": 4182,
      "Ġunlo": 4183,
      "Ġprov": 4184,
      "Ġbagel": 4185,
      "Ġprint": 4186,
      "Ġgrinding": 4187,
      "Ġconference": 4188,
      "Ġconsole": 4189,
      "suit": 4190,
      "Ġcrib": 4191,
      "ably": 4192,
      "Ġthing": 4193,
      "sticks": 4194,
      "Ġcompan": 4195,
      "Ġtape": 4196,
      "Ġthemed": 4197,
      "ĠPERSON": 4198,
      "Ġcurve": 4199,
      "Ġposts": 4200,
      "Ġwinding": 4201,
      "Ġornam": 4202,
      "Ġindicating": 4203,
      "Ġtiss": 4204,
      "Ġsup": 4205,
      "ico": 4206,
      "Ġrect": 4207,
      "Ġcartoon": 4208,
      "Ġbackdrop": 4209,
      "Ġweird": 4210,
      "ĠSH": 4211,
      "Ġdepot": 4212,
      "Ġlearning": 4213,
      "Ġnotebook": 4214,
      "Pass": 4215,
      "fric": 4216,
      "rome": 4217,
      "idy": 4218,
      "Ġelevated": 4219,
      "Ġwake": 4220,
      "Ġboarders": 4221,
      "ills": 4222,
      "ĠSN": 4223,
      "Ġhangar": 4224,
      "Ġsilhou": 4225,
      "Ġcleaned": 4226,
      "Ġextended": 4227,
      "ailing": 4228,
      "pan": 4229,
      "Ġident": 4230,
      "Ġcree": 4231,
      "ised": 4232,
      "Ġmap": 4233,
      "Ġeag": 4234,
      "Ġshades": 4235,
      "Ġcloud": 4236,
      "Ġcompartment": 4237,
      "Ġbrief": 4238,
      "close": 4239,
      "ĠLOO": 4240,
      "Ġspeaking": 4241,
      "Ġmashed": 4242,
      "ĠUn": 4243,
      "Ġinclude": 4244,
      "Ġpineapp": 4245,
      "Ġhuman": 4246,
      "Ġphotographer": 4247,
      "Ġautom": 4248,
      "Ġalcohol": 4249,
      "Passen": 4250,
      "Long": 4251,
      "ky": 4252,
      "vi": 4253,
      "Ġpug": 4254,
      "oping": 4255,
      "amb": 4256,
      "ĠGR": 4257,
      "ĠEurope": 4258,
      "ĠUS": 4259,
      "Ġutility": 4260,
      "Ġoppon": 4261,
      "Comm": 4262,
      "Ġproducts": 4263,
      "Ġparachute": 4264,
      "Ġkissing": 4265,
      "Ġairborne": 4266,
      "Lots": 4267,
      "den": 4268,
      "Ġnow": 4269,
      "vering": 4270,
      "Ġfloat": 4271,
      "ĠTOP": 4272,
      "ĠWALKING": 4273,
      "ĠFrench": 4274,
      "Ġmonument": 4275,
      "Ġrowing": 4276,
      "Ġwindowsill": 4277,
      "Ġpathway": 4278,
      "Ġbutt": 4279,
      "Plates": 4280,
      "Ġindividuals": 4281,
      "ditional": 4282,
      "AP": 4283,
      "des": 4284,
      "ode": 4285,
      "Ġwicker": 4286,
      "ened": 4287,
      "stone": 4288,
      "Ġblur": 4289,
      "Ġdec": 4290,
      "INK": 4291,
      "Ġheadboard": 4292,
      "Ġflav": 4293,
      "Ġsignals": 4294,
      "Ġsquatting": 4295,
      "ĠInd": 4296,
      "Fruit": 4297,
      "Ġbis": 4298,
      "Ġfrying": 4299,
      "Ġnaked": 4300,
      "ops": 4301,
      "Ġsnugg": 4302,
      "Ġcarry": 4303,
      "Ġblu": 4304,
      "Ġovercast": 4305,
      "Ġdest": 4306,
      "Ġdrivers": 4307,
      "Ġbabies": 4308,
      "ugged": 4309,
      "Ġjackets": 4310,
      "ATING": 4311,
      "Ġamid": 4312,
      "Ġcircus": 4313,
      "Ġinstr": 4314,
      "Ġdaughter": 4315,
      "Ġstroller": 4316,
      "ĠBATHROOM": 4317,
      "ixt": 4318,
      "hedr": 4319,
      "Ġhistor": 4320,
      "Ġwaff": 4321,
      "Ġmessage": 4322,
      "Ġpractice": 4323,
      "Ġphotographed": 4324,
      "ROUND": 4325,
      "ĠBUS": 4326,
      "Ġbegin": 4327,
      "Ġhauling": 4328,
      "CHE": 4329,
      "Slic": 4330,
      "Ġtux": 4331,
      "Ġsuch": 4332,
      "Ġba": 4333,
      "atter": 4334,
      "Ġlie": 4335,
      "Ġchristmas": 4336,
      "andw": 4337,
      "andel": 4338,
      "Ġcarous": 4339,
      "Ġblood": 4340,
      "Ġpod": 4341,
      "ational": 4342,
      "Ġparent": 4343,
      "Ġchained": 4344,
      "ritish": 4345,
      "FFE": 4346,
      "Ġfestival": 4347,
      "Ġportrait": 4348,
      "hedral": 4349,
      "Ġthird": 4350,
      "Ġjars": 4351,
      "Ġasph": 4352,
      "ĠCAT": 4353,
      "REE": 4354,
      "ĠPI": 4355,
      "Ġkept": 4356,
      "Ġnumerous": 4357,
      "Ġthumbs": 4358,
      "life": 4359,
      "Ġ5": 4360,
      "iger": 4361,
      "Ġelabor": 4362,
      "Ġplains": 4363,
      "Ġgrown": 4364,
      "Ġgravy": 4365,
      "Ġsails": 4366,
      "scra": 4367,
      "Skier": 4368,
      "Adults": 4369,
      "Ġsoldiers": 4370,
      "ĠSUR": 4371,
      "Ġfigurines": 4372,
      "Ġdepicting": 4373,
      "ĠROOM": 4374,
      "Ġgeese": 4375,
      "Ġuncooked": 4376,
      "Lady": 4377,
      "Mo": 4378,
      "Pro": 4379,
      "Sign": 4380,
      "ipp": 4381,
      "Ġstom": 4382,
      "Ġstable": 4383,
      "Ġnur": 4384,
      "Ġskil": 4385,
      "Ġshines": 4386,
      "ipe": 4387,
      "Ġprot": 4388,
      "Ġemb": 4389,
      "Ġseating": 4390,
      "Ġknees": 4391,
      "Ġdigital": 4392,
      "ĠPARK": 4393,
      "ĠSNOW": 4394,
      "Ġcarousel": 4395,
      "cy": 4396,
      "aby": 4397,
      "Ġplacing": 4398,
      "ams": 4399,
      "Ġdisk": 4400,
      "Ġtowing": 4401,
      "Ġappear": 4402,
      "Ġworn": 4403,
      "Ġbarbed": 4404,
      "Ġpiles": 4405,
      "Ġarmy": 4406,
      "Ġpackage": 4407,
      "Ġstaircase": 4408,
      "Ġbackpacks": 4409,
      "Ġtoasted": 4410,
      "Ġmedium": 4411,
      "truck": 4412,
      "Ġsneakers": 4413,
      "Ġconveyor": 4414,
      "Ġroller": 4415,
      "Ġasphalt": 4416,
      "NIS": 4417,
      "hat": 4418,
      "Ġna": 4419,
      "Ġrot": 4420,
      "ions": 4421,
      "ĠAfric": 4422,
      "ĠĠĠĠ": 4423,
      "ude": 4424,
      "Ġclosely": 4425,
      "Ġcompeting": 4426,
      "ĠSKATE": 4427,
      "Living": 4428,
      "emb": 4429,
      "ikes": 4430,
      "Ġoriental": 4431,
      "rew": 4432,
      "ately": 4433,
      "Ġyouth": 4434,
      "Ġgrab": 4435,
      "ells": 4436,
      "Ġskyscra": 4437,
      "ĠCAR": 4438,
      "Ġmeats": 4439,
      "Ġnote": 4440,
      "THER": 4441,
      "Ġcrack": 4442,
      "OWN": 4443,
      "Ġkettle": 4444,
      "Ġreturning": 4445,
      "Ġprinter": 4446,
      "Ġcustomers": 4447,
      "Ġadorned": 4448,
      "ĠGRASS": 4449,
      "Ġstomach": 4450,
      "City": 4451,
      "EP": 4452,
      "Fe": 4453,
      "UL": 4454,
      "res": 4455,
      "ains": 4456,
      "Ġpress": 4457,
      "ĠCOM": 4458,
      "Ġkeyboards": 4459,
      "Ġmarked": 4460,
      "Ġplanter": 4461,
      "Ġscenic": 4462,
      "Ġstripes": 4463,
      "Ġpears": 4464,
      "osed": 4465,
      "Ġtourists": 4466,
      "ENNIS": 4467,
      "ONE": 4468,
      "LACK": 4469,
      "ĠTRAIN": 4470,
      "Ġbillboard": 4471,
      "Ġwarehouse": 4472,
      "Ġlobby": 4473,
      "Ġdirectly": 4474,
      "AY": 4475,
      "Big": 4476,
      "gen": 4477,
      "ient": 4478,
      "Ġfoli": 4479,
      "Ġanch": 4480,
      "Ġhind": 4481,
      "otic": 4482,
      "elly": 4483,
      "Ġselection": 4484,
      "ĠStop": 4485,
      "Ġbarbe": 4486,
      "Ġrocking": 4487,
      "Ġtube": 4488,
      "Ġstalls": 4489,
      "Ġpowdered": 4490,
      "Ġshrubs": 4491,
      "Motorcycles": 4492,
      "Flowers": 4493,
      "Ġsavannah": 4494,
      "attoo": 4495,
      "Ġcluster": 4496,
      "Ġinspe": 4497,
      "rup": 4498,
      "ĠZ": 4499,
      "ĠZebras": 4500,
      "Ġcall": 4501,
      "Ġones": 4502,
      "Ġbean": 4503,
      "Ġplaces": 4504,
      "Ġtowers": 4505,
      "Ġstationary": 4506,
      "Ġdonkey": 4507,
      "Ġfarmers": 4508,
      "ĠUP": 4509,
      "Ġstrawberry": 4510,
      "Ġshuttle": 4511,
      "Ġblueb": 4512,
      "Ġfoliage": 4513,
      "Ġpuddle": 4514,
      "Ġeas": 4515,
      "Ġchrome": 4516,
      "Ġcathedral": 4517,
      "Ġracks": 4518,
      "Ġpocket": 4519,
      "Ġwere": 4520,
      "Ġroadside": 4521,
      "Ġslide": 4522,
      "ĠAirl": 4523,
      "Ġtrio": 4524,
      "Ġtrip": 4525,
      "Ġmetro": 4526,
      "Ġsau": 4527,
      "someone": 4528,
      "Ġbookcase": 4529,
      "Ġattract": 4530,
      "Ġextra": 4531,
      "Ġentering": 4532,
      "Ġcruise": 4533,
      "Photo": 4534,
      "Ġbarrier": 4535,
      "Ġopponent": 4536,
      "IM": 4537,
      "Luggage": 4538,
      "NG": 4539,
      "Sm": 4540,
      "ively": 4541,
      "uched": 4542,
      "Ġsol": 4543,
      "Ġpig": 4544,
      "ishes": 4545,
      "ont": 4546,
      "Ġnames": 4547,
      "Ġrob": 4548,
      "Ġconf": 4549,
      "ĠSIGN": 4550,
      "Ġhelp": 4551,
      "deled": 4552,
      "Ġdeserted": 4553,
      "Ġcrouching": 4554,
      "Ġinteract": 4555,
      "Ġstretched": 4556,
      "Ġteenage": 4557,
      "ĠPLATE": 4558,
      "Ġsuite": 4559,
      "ĠWATER": 4560,
      "Ġpodium": 4561,
      "IV": 4562,
      "Orange": 4563,
      "Ġcoo": 4564,
      "Ġchan": 4565,
      "Ġintently": 4566,
      "Ġscrat": 4567,
      "Ġtex": 4568,
      "Ġmacar": 4569,
      "Ġmidair": 4570,
      "Ġmeas": 4571,
      "Ġspecial": 4572,
      "Ġsubur": 4573,
      "Ġshapes": 4574,
      "Ġshoulders": 4575,
      "ĠJapan": 4576,
      "Ġcubicle": 4577,
      "Ġstools": 4578,
      "Ġbalances": 4579,
      "ixture": 4580,
      "Very": 4581,
      "father": 4582,
      "Ġtattoo": 4583,
      "Ġcud": 4584,
      "Ġgy": 4585,
      "Ġtoo": 4586,
      "orn": 4587,
      "ccup": 4588,
      "Ġchecks": 4589,
      "Ġlogo": 4590,
      "Ġstores": 4591,
      "Ġpaintings": 4592,
      "Ġharness": 4593,
      "Ġrubb": 4594,
      "Ġsoldier": 4595,
      "Ġlistening": 4596,
      "ĠCanad": 4597,
      "ĠLOOKING": 4598,
      "Sandw": 4599,
      "Teddy": 4600,
      "Ġwo": 4601,
      "Ġmixture": 4602,
      "Ġnest": 4603,
      "Ġmane": 4604,
      "Ġnecks": 4605,
      "tery": 4606,
      "Ġrings": 4607,
      "ĠOUT": 4608,
      "Ġdressing": 4609,
      "Ġlove": 4610,
      "Ġdiner": 4611,
      "rong": 4612,
      "OME": 4613,
      "Horse": 4614,
      "Ġarchite": 4615,
      "Ġdusty": 4616,
      "Ġleaned": 4617,
      "Her": 4618,
      "iner": 4619,
      "Ġtee": 4620,
      "Ġpay": 4621,
      "Ġdash": 4622,
      "lain": 4623,
      "Ġfrozen": 4624,
      "Ġrunner": 4625,
      "ments": 4626,
      "Ġfeeds": 4627,
      "Ġunit": 4628,
      "Ġmaroon": 4629,
      "Ġcommode": 4630,
      "Ġpartly": 4631,
      "Ġstepping": 4632,
      "Ġcrate": 4633,
      "Ġoutfits": 4634,
      "Ġwheelchair": 4635,
      "Ġchopsticks": 4636,
      "Ġelectrical": 4637,
      "Ġmuffins": 4638,
      "Veget": 4639,
      "ĠEnglish": 4640,
      "Wood": 4641,
      "ex": 4642,
      "rand": 4643,
      "ye": 4644,
      "Ġtim": 4645,
      "Ġcurious": 4646,
      "ern": 4647,
      "Ġdug": 4648,
      "ummy": 4649,
      "amas": 4650,
      "Ġvac": 4651,
      "Ġboardwalk": 4652,
      "Ġenvi": 4653,
      "Ġwhen": 4654,
      "ronment": 4655,
      "Ġnewly": 4656,
      "ĠKIT": 4657,
      "Ġrubbing": 4658,
      "Ġparasol": 4659,
      "Comp": 4660,
      "Ġtuxed": 4661,
      "Ġtexting": 4662,
      "Ġmacaroni": 4663,
      "RU": 4664,
      "green": 4665,
      "like": 4666,
      "ora": 4667,
      "Ġsum": 4668,
      "alle": 4669,
      "eter": 4670,
      "utes": 4671,
      "ically": 4672,
      "Ġki": 4673,
      "cept": 4674,
      "Ġyog": 4675,
      "Ġfloats": 4676,
      "ĠTENNIS": 4677,
      "ĠBritish": 4678,
      "Ġloaf": 4679,
      "Ġemer": 4680,
      "Ġapart": 4681,
      "Ġantel": 4682,
      "Ġclaim": 4683,
      "Ġsyrup": 4684,
      "Ġradio": 4685,
      "Ġrectangular": 4686,
      "Ġenvironment": 4687,
      "App": 4688,
      "ACK": 4689,
      "cue": 4690,
      "Ġid": 4691,
      "inished": 4692,
      "Ġsat": 4693,
      "Ġble": 4694,
      "atula": 4695,
      "Ġgun": 4696,
      "Ġtouch": 4697,
      "Ġlimb": 4698,
      "Ġstump": 4699,
      "ution": 4700,
      "Ġchandel": 4701,
      "Ġblinds": 4702,
      "Ġhear": 4703,
      "Ġspatula": 4704,
      "Ġdip": 4705,
      "Ġdipping": 4706,
      "Ġarray": 4707,
      "Ġbicyclist": 4708,
      "Ġserves": 4709,
      "Ġpeering": 4710,
      "Ġpaj": 4711,
      "Ġshots": 4712,
      "Ġfog": 4713,
      "Ġartistic": 4714,
      "Ġtourist": 4715,
      "Ġstretches": 4716,
      "Ġcaption": 4717,
      "Ġstarting": 4718,
      "ĠSKI": 4719,
      "Ġoperating": 4720,
      "Ġinfant": 4721,
      "Ġmajor": 4722,
      "Ġostrich": 4723,
      "BO": 4724,
      "La": 4725,
      "ha": 4726,
      "ino": 4727,
      "Ġtry": 4728,
      "Ġtiger": 4729,
      "urt": 4730,
      "Ġsharp": 4731,
      "Ġflipping": 4732,
      "Ġspeeding": 4733,
      "ĠFL": 4734,
      "ĠCLO": 4735,
      "Ġcamp": 4736,
      "Ġlodge": 4737,
      "Ġrefrigerators": 4738,
      "Ġcrates": 4739,
      "Ġfigures": 4740,
      "Boys": 4741,
      "Ġspotted": 4742,
      "Ġexcited": 4743,
      "Snowboarder": 4744,
      "ĠSURF": 4745,
      "AIR": 4746,
      "AGE": 4747,
      "UR": 4748,
      "aves": 4749,
      "obile": 4750,
      "Ġ6": 4751,
      "Ġbump": 4752,
      "Ġbamb": 4753,
      "Ġcooks": 4754,
      "Ġinform": 4755,
      "Ġmes": 4756,
      "Ġneeds": 4757,
      "Ġstreetlight": 4758,
      "celain": 4759,
      "Ġgrassland": 4760,
      "ARGE": 4761,
      "Ġpoliceman": 4762,
      "edestri": 4763,
      "ibly": 4764,
      "Ġshrubb": 4765,
      "Ġcobblestone": 4766,
      "Ġtissue": 4767,
      "Ġskillet": 4768,
      "Female": 4769,
      "Ġgym": 4770,
      "Ġbamboo": 4771,
      "fall": 4772,
      "field": 4773,
      "mar": 4774,
      "Ġferry": 4775,
      "Ġstart": 4776,
      "ripe": 4777,
      "Ġpies": 4778,
      "Ġgroups": 4779,
      "Ġsignage": 4780,
      "Ġyounger": 4781,
      "Ġhitter": 4782,
      "acting": 4783,
      "ĠCo": 4784,
      "ĠNew": 4785,
      "Ġquick": 4786,
      "Ġextre": 4787,
      "Ġpriv": 4788,
      "Ġremodeled": 4789,
      "Ġangle": 4790,
      "Ġgrandfather": 4791,
      "Ġelse": 4792,
      "Ġspacious": 4793,
      "Fire": 4794,
      "Pedestri": 4795,
      "Ġtidy": 4796,
      "Ġroman": 4797,
      "Ġdozen": 4798,
      "Ġdemon": 4799,
      "Ġmountainous": 4800,
      "ĠBLACK": 4801,
      "Ġclearing": 4802,
      "ĠHOR": 4803,
      "Ġengaged": 4804,
      "Ġsofas": 4805,
      "Ġartwork": 4806,
      "Ġentree": 4807,
      "Ġsprinkled": 4808,
      "Ġcalico": 4809,
      "Ġcherry": 4810,
      "ĠAirlines": 4811,
      "Bright": 4812,
      "Baby": 4813,
      "Ġtuck": 4814,
      "het": 4815,
      "Ġdone": 4816,
      "Ġdual": 4817,
      "iday": 4818,
      "icip": 4819,
      "umn": 4820,
      "Ġsomewhere": 4821,
      "Ġspots": 4822,
      "ĠBASE": 4823,
      "Ġcurved": 4824,
      "ĠDOWN": 4825,
      "ĠEATING": 4826,
      "Ġwasher": 4827,
      "Ġcraft": 4828,
      "Ġstunts": 4829,
      "ILD": 4830,
      "ĠSUV": 4831,
      "Ġsweet": 4832,
      "Ġsuper": 4833,
      "Modern": 4834,
      "Smiling": 4835,
      "Ġpajamas": 4836,
      "Bunches": 4837,
      "off": 4838,
      "par": 4839,
      "sa": 4840,
      "Ġthru": 4841,
      "Ġplush": 4842,
      "Ġships": 4843,
      "Ġram": 4844,
      "Ġjelly": 4845,
      "Ġmenu": 4846,
      "ĠAIR": 4847,
      "Ġsauc": 4848,
      "Ġcarriages": 4849,
      "Ġbalance": 4850,
      "Ġletter": 4851,
      "Ġglowing": 4852,
      "Ġfurnishing": 4853,
      "Ġawaiting": 4854,
      "Ġshrubbery": 4855,
      "All": 4856,
      "Out": 4857,
      "ends": 4858,
      "ckets": 4859,
      "Ġalarm": 4860,
      "Ġbigger": 4861,
      "Older": 4862,
      "Double": 4863,
      "Ġskinny": 4864,
      "IGHT": 4865,
      "Ġmovie": 4866,
      "Police": 4867,
      "Ġelaborate": 4868,
      "Light": 4869,
      "fashion": 4870,
      "park": 4871,
      "Ġran": 4872,
      "Ġbla": 4873,
      "Ġdam": 4874,
      "Ġton": 4875,
      "Ġtrave": 4876,
      "Ġfix": 4877,
      "ĠAL": 4878,
      "Ġtagged": 4879,
      "Ġbowling": 4880,
      "Ġviewed": 4881,
      "Ġgour": 4882,
      "venue": 4883,
      "Ġmemb": 4884,
      "ERY": 4885,
      "Ġappliance": 4886,
      "ĠSTOP": 4887,
      "Ġfarmer": 4888,
      "Ġbiker": 4889,
      "Ġporcelain": 4890,
      "Ġfingers": 4891,
      "Ġidentical": 4892,
      "Ġrubber": 4893,
      "Batter": 4894,
      "PH": 4895,
      "cuit": 4896,
      "kers": 4897,
      "tra": 4898,
      "ĠZebra": 4899,
      "Ġinfl": 4900,
      "Ġmoored": 4901,
      "Ġhut": 4902,
      "Ġdancing": 4903,
      "ilted": 4904,
      "ote": 4905,
      "Ġreal": 4906,
      "Ġraw": 4907,
      "Ġweeds": 4908,
      "Ġtreats": 4909,
      "aging": 4910,
      "Ġbanner": 4911,
      "Ġcutter": 4912,
      "ushi": 4913,
      "ĠSIDE": 4914,
      "ĠBED": 4915,
      "Ġpitched": 4916,
      "Ġbarren": 4917,
      "Ġwildlife": 4918,
      "ĠELE": 4919,
      "Inside": 4920,
      "Ġseparated": 4921,
      "Ġcooling": 4922,
      "Ġunfinished": 4923,
      "ĠEuropean": 4924,
      "fashioned": 4925,
      "pid": 4926,
      "pris": 4927,
      "Ġtying": 4928,
      "Ġcast": 4929,
      "Ġgaming": 4930,
      "Ġparts": 4931,
      "Ġjunk": 4932,
      "Ġswung": 4933,
      "Ġbunny": 4934,
      "ITY": 4935,
      "ĠLe": 4936,
      "Ġengines": 4937,
      "Assorted": 4938,
      "Ġesc": 4939,
      "Professional": 4940,
      "Ġsuburban": 4941,
      "Bic": 4942,
      "Hand": 4943,
      "Un": 4944,
      "yed": 4945,
      "Ġox": 4946,
      "Ġpork": 4947,
      "alled": 4948,
      "Ġemp": 4949,
      "Ġrabb": 4950,
      "Ġled": 4951,
      "Ġhandic": 4952,
      "Ġhandbag": 4953,
      "Ġtreat": 4954,
      "Ġcontra": 4955,
      "Ġlining": 4956,
      "Ġpenc": 4957,
      "Ġnotes": 4958,
      "Ġequipped": 4959,
      "Here": 4960,
      "Ġlifting": 4961,
      "ĠRED": 4962,
      "Ġpineapple": 4963,
      "Open": 4964,
      "ecker": 4965,
      "fo": 4966,
      "Ġwalled": 4967,
      "ugs": 4968,
      "Ġtowed": 4969,
      "Ġopens": 4970,
      "Ġteaching": 4971,
      "Ġviewing": 4972,
      "ĠBL": 4973,
      "Ġlocked": 4974,
      "shield": 4975,
      "Ġstripped": 4976,
      "Ġpads": 4977,
      "Ġcelery": 4978,
      "Ġhoodie": 4979,
      "appy": 4980,
      "ĠBEACH": 4981,
      "uzzy": 4982,
      "Play": 4983,
      "Ġpossibly": 4984,
      "Ġbuttons": 4985,
      "ĠAfrican": 4986,
      "Ġchandelier": 4987,
      "At": 4988,
      "ION": 4989,
      "Sil": 4990,
      "Ġtro": 4991,
      "Ġpil": 4992,
      "Ġfile": 4993,
      "Ġmural": 4994,
      "Ġdro": 4995,
      "Ġlime": 4996,
      "rie": 4997,
      "Ġrough": 4998,
      "Ġlead": 4999,
      "Ġbends": 5000,
      "Ġwallp": 5001,
      "Ġhandles": 5002,
      "Ġmail": 5003,
      "Ġmaker": 5004,
      "Ġovens": 5005,
      "Ġbreaking": 5006,
      "Ġmean": 5007,
      "Ġforested": 5008,
      "Ġnecktie": 5009,
      "Ġhappily": 5010,
      "Ġexpress": 5011,
      "Ġpigeon": 5012,
      "Ġhiking": 5013,
      "Ġhipster": 5014,
      "Herd": 5015,
      "CT": 5016,
      "Crow": 5017,
      "Gra": 5018,
      "IE": 5019,
      "iam": 5020,
      "noon": 5021,
      "toman": 5022,
      "Ġ'": 5023,
      "Ġcot": 5024,
      "Ġwhipped": 5025,
      "Ġwindshield": 5026,
      "aggy": 5027,
      "dless": 5028,
      "Ġstacks": 5029,
      "Ġletting": 5030,
      "Ġblocks": 5031,
      "Ġsilly": 5032,
      "flowers": 5033,
      "Ġiced": 5034,
      "Ġathlet": 5035,
      "VE": 5036,
      "foot": 5037,
      "ĠAn": 5038,
      "Ġbid": 5039,
      "erman": 5040,
      "Ġtraditional": 5041,
      "Ġholiday": 5042,
      "Ġrim": 5043,
      "uments": 5044,
      "Ġoutst": 5045,
      "Ġgrouped": 5046,
      "Ġwaterfall": 5047,
      "imate": 5048,
      "Ġhoriz": 5049,
      "Ġottoman": 5050,
      "Ġtech": 5051,
      "Ġridding": 5052,
      "ĠCITY": 5053,
      "Ġadm": 5054,
      "Ġsteer": 5055,
      "Ġcrest": 5056,
      "Ġgarlic": 5057,
      "berries": 5058,
      "Ġoutfield": 5059,
      "Ġcrouched": 5060,
      "Ġinteracting": 5061,
      "Ġjeep": 5062,
      "ĠBOY": 5063,
      "ELL": 5064,
      "Ġplent": 5065,
      "Ġwindsurfing": 5066,
      "Ġunloading": 5067,
      "Ġeagle": 5068,
      "Ġcrackers": 5069,
      "Ġtuxedo": 5070,
      "Ġfurnishings": 5071,
      "zens": 5072,
      "itive": 5073,
      "Ġhanger": 5074,
      "alo": 5075,
      "law": 5076,
      "Ġsitu": 5077,
      "Ġcock": 5078,
      "Ġrode": 5079,
      "andal": 5080,
      "Ġplayground": 5081,
      "tern": 5082,
      "Ġdef": 5083,
      "acent": 5084,
      "Ġclown": 5085,
      "Ġaged": 5086,
      "Ġattent": 5087,
      "Ġpeas": 5088,
      "Ġpengu": 5089,
      "Ġafternoon": 5090,
      "Ġlocal": 5091,
      "vention": 5092,
      "Ġletters": 5093,
      "Ġpowder": 5094,
      "ROUP": 5095,
      "Ġattractive": 5096,
      "cot": 5097,
      "ose": 5098,
      "osing": 5099,
      "ually": 5100,
      "woman": 5101,
      "Ġwool": 5102,
      "Ġpane": 5103,
      "arking": 5104,
      "ence": 5105,
      "Ġcoke": 5106,
      "Ġreno": 5107,
      "Ġtram": 5108,
      "Ġroas": 5109,
      "ulated": 5110,
      "Ġhorned": 5111,
      "Ġpoised": 5112,
      "Ġalumin": 5113,
      "Ġslides": 5114,
      "ocad": 5115,
      "ĠGira": 5116,
      "ĠGROUP": 5117,
      "Ġpitchers": 5118,
      "Ġfoam": 5119,
      "Ġbloom": 5120,
      "Ġblocking": 5121,
      "Ġbulls": 5122,
      "Ġadjacent": 5123,
      "Kites": 5124,
      "Ġyogurt": 5125,
      "Ar": 5126,
      "ache": 5127,
      "looking": 5128,
      "sk": 5129,
      "Ġsushi": 5130,
      "inger": 5131,
      "Ġcent": 5132,
      "Ġfit": 5133,
      "Ġfle": 5134,
      "Ġhud": 5135,
      "Ġgoo": 5136,
      "Ġlower": 5137,
      "ics": 5138,
      "Ġcoats": 5139,
      "Ġshred": 5140,
      "Ġshaggy": 5141,
      "Ġwatched": 5142,
      "Ġmotel": 5143,
      "Ġscale": 5144,
      "leslaw": 5145,
      "Ġpreten": 5146,
      "Ġtheme": 5147,
      "Ġbicyclists": 5148,
      "ANE": 5149,
      "ivity": 5150,
      "Ġwrap": 5151,
      "Ġstained": 5152,
      "Cattle": 5153,
      "Ġfollowed": 5154,
      "Ġcalled": 5155,
      "retched": 5156,
      "Ġhalves": 5157,
      "Ġsilhouette": 5158,
      "Ġautomobile": 5159,
      "Ġbiscuit": 5160,
      "Computer": 5161,
      "Apples": 5162,
      "Ġaluminum": 5163,
      "UE": 5164,
      "Ġthese": 5165,
      "Ġmoney": 5166,
      "Ġgall": 5167,
      "Ġcoleslaw": 5168,
      "Ġrel": 5169,
      "Ġupward": 5170,
      "Ġleave": 5171,
      "Ġfiretruck": 5172,
      "ĠWIN": 5173,
      "Ġfema": 5174,
      "acter": 5175,
      "Ġperches": 5176,
      "Ġstripe": 5177,
      "Ġbelong": 5178,
      "Ġdirecting": 5179,
      "Ġchickens": 5180,
      "Ġpointed": 5181,
      "ROW": 5182,
      "Ġgliding": 5183,
      "Ġbullet": 5184,
      "Ġstrings": 5185,
      "Ġprovide": 5186,
      "Laptop": 5187,
      "Ġgourmet": 5188,
      "Em": 5189,
      "thing": 5190,
      "Ġpage": 5191,
      "alks": 5192,
      "Ġcarn": 5193,
      "Ġsurpris": 5194,
      "Ġgrasses": 5195,
      "Ġpoking": 5196,
      "Ġbricks": 5197,
      "Ġdiving": 5198,
      "Ġdriven": 5199,
      "temp": 5200,
      "ĠFOOD": 5201,
      "Ġunripe": 5202,
      "Ġguests": 5203,
      "Ġsetup": 5204,
      "wear": 5205,
      "izing": 5206,
      "ĠRI": 5207,
      "ĠRo": 5208,
      "Ġfeathers": 5209,
      "Ġflatbed": 5210,
      "Ġcards": 5211,
      "Ġmixing": 5212,
      "Ġportion": 5213,
      "Ġcubs": 5214,
      "Ġpowered": 5215,
      "Ġavocad": 5216,
      "ĠNEAR": 5217,
      "Ġfolding": 5218,
      "Ġblurred": 5219,
      "Wooden": 5220,
      "Ġdugout": 5221,
      "Ġoutstretched": 5222,
      "Ġfemales": 5223,
      "Al": 5224,
      "ua": 5225,
      "Ġsled": 5226,
      "Ġpir": 5227,
      "atable": 5228,
      "ilar": 5229,
      "Ġrelish": 5230,
      "Ġskates": 5231,
      "Ġtoiletries": 5232,
      "Ġshed": 5233,
      "Ġdinning": 5234,
      "Ġpanel": 5235,
      "Ġpillar": 5236,
      "nequ": 5237,
      "Ġvisit": 5238,
      "Ġsausages": 5239,
      "Ġcharacter": 5240,
      "Ġsimilar": 5241,
      "Ġcycles": 5242,
      "Ġhumming": 5243,
      "Surfers": 5244,
      "Ġsaddle": 5245,
      "Ġtort": 5246,
      "Assortment": 5247,
      "Ġcompany": 5248,
      "Bow": 5249,
      "Half": 5250,
      "ai": 5251,
      "bee": 5252,
      "young": 5253,
      "erior": 5254,
      "Ġhun": 5255,
      "illed": 5256,
      "ury": 5257,
      "Ġvandal": 5258,
      "Ġbedding": 5259,
      "Ġbackwards": 5260,
      "tled": 5261,
      "Ġheels": 5262,
      "Ġcompact": 5263,
      "Ġasc": 5264,
      "Ġsocks": 5265,
      "Ġflowered": 5266,
      "Seven": 5267,
      "anging": 5268,
      "Ġpottery": 5269,
      "Ġsteering": 5270,
      "Ġuniformed": 5271,
      "Ġholes": 5272,
      "Ġcrouches": 5273,
      "Ġfalls": 5274,
      "Ġdolls": 5275,
      "avily": 5276,
      "Ġsweatshirt": 5277,
      "Ġbutterf": 5278,
      "ountry": 5279,
      "Ġwandering": 5280,
      "Ġprotest": 5281,
      "Vegetables": 5282,
      "Ġquickly": 5283,
      "Pedestrians": 5284,
      "Ġplenty": 5285,
      "Table": 5286,
      "yond": 5287,
      "inn": 5288,
      "rey": 5289,
      "ert": 5290,
      "ashing": 5291,
      "Ġbeyond": 5292,
      "Ġrobe": 5293,
      "Ġplugged": 5294,
      "Ġpipes": 5295,
      "Ġherbs": 5296,
      "ranges": 5297,
      "Ġwax": 5298,
      "Ġcong": 5299,
      "Ġspar": 5300,
      "Ġspro": 5301,
      "Ġhilly": 5302,
      "ĠIt": 5303,
      "ĠLARGE": 5304,
      "Ġpeeling": 5305,
      "Ġnews": 5306,
      "Clock": 5307,
      "ĠVE": 5308,
      "ĠCHILD": 5309,
      "ĠJapanese": 5310,
      "Ġantelope": 5311,
      "Empty": 5312,
      "AKE": 5313,
      "Meat": 5314,
      "Spe": 5315,
      "ZZ": 5316,
      "aff": 5317,
      "Ġtug": 5318,
      "Ġoil": 5319,
      "Ġpets": 5320,
      "Ġnav": 5321,
      "Ġmantle": 5322,
      "Ġchamp": 5323,
      "Ġvast": 5324,
      "Ġnearly": 5325,
      "zzly": 5326,
      "Ġcomplet": 5327,
      "agus": 5328,
      "vest": 5329,
      "Ġstocked": 5330,
      "ĠGAM": 5331,
      "Ġspeaker": 5332,
      "Ġdistant": 5333,
      "Ġlocation": 5334,
      "Ġaccents": 5335,
      "Ġrelax": 5336,
      "Ġparasailing": 5337,
      "Ġbites": 5338,
      "Ġdescri": 5339,
      "ĠUnited": 5340,
      "ĠIndian": 5341,
      "Ġanchored": 5342,
      "Ġcooler": 5343,
      "Ġmeasuring": 5344,
      "Ġinflatable": 5345,
      "Ġbidet": 5346,
      "Ġsituated": 5347,
      "So": 5348,
      "UM": 5349,
      "bird": 5350,
      "mel": 5351,
      "Ġ7": 5352,
      "elle": 5353,
      "Ġroads": 5354,
      "Ġconvention": 5355,
      "Ġcontemp": 5356,
      "Ġswan": 5357,
      "Ġcord": 5358,
      "Ġdecked": 5359,
      "Ġramps": 5360,
      "olli": 5361,
      "Ġkneels": 5362,
      "Ġretrie": 5363,
      "Ġraising": 5364,
      "Ġconsum": 5365,
      "ĠYork": 5366,
      "Ġleaps": 5367,
      "Ġslab": 5368,
      "Carrots": 5369,
      "Ġcomfortable": 5370,
      "Ġcucumbers": 5371,
      "ILET": 5372,
      "CHEN": 5373,
      "Ġembra": 5374,
      "Ġrabbit": 5375,
      "AIN": 5376,
      "BALL": 5377,
      "Che": 5378,
      "ĠTh": 5379,
      "ana": 5380,
      "arn": 5381,
      "Ġfut": 5382,
      "Ġfuzzy": 5383,
      "orce": 5384,
      "Ġnuzz": 5385,
      "ased": 5386,
      "iced": 5387,
      "Ġroast": 5388,
      "Ġchina": 5389,
      "str": 5390,
      "Ġskiier": 5391,
      "Ġcaution": 5392,
      "agne": 5393,
      "Ġsocial": 5394,
      "achers": 5395,
      "Ġcorral": 5396,
      "Ġcurrent": 5397,
      "ĠMar": 5398,
      "mbol": 5399,
      "ĠVERY": 5400,
      "Ġdiscus": 5401,
      "Ġchopping": 5402,
      "planes": 5403,
      "Ġcops": 5404,
      "ELD": 5405,
      "Ġmelted": 5406,
      "ĠSMALL": 5407,
      "Ġsleek": 5408,
      "ĠHER": 5409,
      "Ġinteractive": 5410,
      "Ġvandalized": 5411,
      "EAR": 5412,
      "Oranges": 5413,
      "SIDE": 5414,
      "Vintage": 5415,
      "con": 5416,
      "country": 5417,
      "Ġmannequ": 5418,
      "Ġthrew": 5419,
      "Ġever": 5420,
      "Ġreve": 5421,
      "Ġrolled": 5422,
      "Ġboun": 5423,
      "Ġthats": 5424,
      "Ġshare": 5425,
      "Ġsmelling": 5426,
      "Ġcarved": 5427,
      "ĠAve": 5428,
      "Ġrh": 5429,
      "Ġaspar": 5430,
      "Ġscru": 5431,
      "box": 5432,
      "agon": 5433,
      "Ġimp": 5434,
      "ĠBY": 5435,
      "ĠBALL": 5436,
      "Ġhelps": 5437,
      "Ġassemb": 5438,
      "Ġsymbol": 5439,
      "Ġliquor": 5440,
      "Ġteenagers": 5441,
      "ĠKITCHEN": 5442,
      "Ġdemonstr": 5443,
      "PHANT": 5444,
      "Cl": 5445,
      "RT": 5446,
      "hua": 5447,
      "Ġtet": 5448,
      "lete": 5449,
      "lace": 5450,
      "chan": 5451,
      "Ġareas": 5452,
      "Ġcould": 5453,
      "Ġsmooth": 5454,
      "Ġheavily": 5455,
      "ĠAvenue": 5456,
      "Ġmidst": 5457,
      "Ġcabbage": 5458,
      "Ġmarsh": 5459,
      "Ġstem": 5460,
      "ĠĠĠ": 5461,
      "Ġstorefront": 5462,
      "Ġwheeled": 5463,
      "Ġsmiley": 5464,
      "Ġportable": 5465,
      "Ġsmartphone": 5466,
      "Ġcasser": 5467,
      "ĠTOILET": 5468,
      "Toilet": 5469,
      "Ġthough": 5470,
      "Ġkayak": 5471,
      "ĠGIRA": 5472,
      "IVING": 5473,
      "Bicycle": 5474,
      "Ġwallpaper": 5475,
      "Ġtortilla": 5476,
      "ZZA": 5477,
      "PLE": 5478,
      "band": 5479,
      "ys": 5480,
      "yle": 5481,
      "Ġincoming": 5482,
      "Ġhom": 5483,
      "orary": 5484,
      "Ġnes": 5485,
      "Ġtending": 5486,
      "Ġairfield": 5487,
      "Ġbend": 5488,
      "Ġzone": 5489,
      "Ġappet": 5490,
      "imals": 5491,
      "Ġstew": 5492,
      "Ġmeals": 5493,
      "Ġstrike": 5494,
      "Ġcarrier": 5495,
      "OTOR": 5496,
      "OUNG": 5497,
      "Ġknitted": 5498,
      "Ġmaterials": 5499,
      "Donuts": 5500,
      "Ġdashboard": 5501,
      "Ġsparse": 5502,
      "Ġasparagus": 5503,
      "Int": 5504,
      "Sun": 5505,
      "Tour": 5506,
      "Ġovers": 5507,
      "Ġcyclist": 5508,
      "Ġdorm": 5509,
      "ense": 5510,
      "Ġstating": 5511,
      "iring": 5512,
      "Ġshaded": 5513,
      "Ġshake": 5514,
      "Ġjam": 5515,
      "Ġcapped": 5516,
      "Ġspre": 5517,
      "aghet": 5518,
      "gerator": 5519,
      "Ġclub": 5520,
      "Ġamer": 5521,
      "Ġexit": 5522,
      "Ġlayered": 5523,
      "Ġsquash": 5524,
      "Ġfaced": 5525,
      "Ġtakeoff": 5526,
      "Ġmixer": 5527,
      "Ġprotective": 5528,
      "Ġslowly": 5529,
      "Ġpushed": 5530,
      "Passengers": 5531,
      "Ġinstruments": 5532,
      "Ġkiw": 5533,
      "Ġinformation": 5534,
      "Ġprivate": 5535,
      "Ġemplo": 5536,
      "Ġchampagne": 5537,
      "Ġcompletely": 5538,
      "YC": 5539,
      "dress": 5540,
      "Ġcit": 5541,
      "Ġfilling": 5542,
      "Ġtouches": 5543,
      "Ġwhit": 5544,
      "Ġeight": 5545,
      "Ġsewing": 5546,
      "Ġswans": 5547,
      "Ġsour": 5548,
      "eaten": 5549,
      "Ġbiplane": 5550,
      "ĠFRO": 5551,
      "Ġworld": 5552,
      "Ġskatepark": 5553,
      "Ġposters": 5554,
      "ĠDel": 5555,
      "Ġcrumb": 5556,
      "Ġ19": 5557,
      "Ġprice": 5558,
      "Ġmotorbikes": 5559,
      "Ġmopeds": 5560,
      "Ġfinished": 5561,
      "ĠFIELD": 5562,
      "gency": 5563,
      "BOARD": 5564,
      "Ġtucked": 5565,
      "Ġhuddled": 5566,
      "Ġcasserole": 5567,
      "aghetti": 5568,
      "De": 5569,
      "UN": 5570,
      "five": 5571,
      "lane": 5572,
      "vet": 5573,
      "Ġtul": 5574,
      "Ġoval": 5575,
      "Ġpon": 5576,
      "Ġstare": 5577,
      "olly": 5578,
      "Ġrasp": 5579,
      "Ġcages": 5580,
      "Ġsco": 5581,
      "Ġtemp": 5582,
      "Ġsoaked": 5583,
      "angle": 5584,
      "Ġunable": 5585,
      "Ġcords": 5586,
      "Ġprepar": 5587,
      "ĠDES": 5588,
      "Ġcroiss": 5589,
      "Ġmustache": 5590,
      "Ġmugs": 5591,
      "Ġsculptures": 5592,
      "Ġstudio": 5593,
      "Ġlabeled": 5594,
      "Ġcombination": 5595,
      "Vehic": 5596,
      "Ġcreek": 5597,
      "ĠHORSE": 5598,
      "ĠGAME": 5599,
      "No": 5600,
      "cases": 5601,
      "itting": 5602,
      "onely": 5603,
      "Ġtraining": 5604,
      "Ġbasil": 5605,
      "iece": 5606,
      "Ġtaped": 5607,
      "aped": 5608,
      "Ġsoaring": 5609,
      "lymp": 5610,
      "Ġperch": 5611,
      "Ġstems": 5612,
      "Ġaccom": 5613,
      "Ġbarefoot": 5614,
      "Ġcomfortably": 5615,
      "Ġbriefcase": 5616,
      "Ġbeginning": 5617,
      "ĠPIZZA": 5618,
      "Ġmaneu": 5619,
      "ĠELEPHANT": 5620,
      "ĠRIDING": 5621,
      "Ġpirate": 5622,
      "ashington": 5623,
      "Ġcrown": 5624,
      "Ġges": 5625,
      "urs": 5626,
      "Ġgrape": 5627,
      "Ġfields": 5628,
      "sters": 5629,
      "Ġblind": 5630,
      "rely": 5631,
      "Ġspire": 5632,
      "Ġspaghetti": 5633,
      "ĠSINK": 5634,
      "Ġhydrants": 5635,
      "Ġrefe": 5636,
      "Ġdresses": 5637,
      "REEN": 5638,
      "Ġperf": 5639,
      "Ġcanoes": 5640,
      "Ġsquir": 5641,
      "Ġlanded": 5642,
      "Ġcroche": 5643,
      "ouf": 5644,
      "Ġnapkins": 5645,
      "ĠBEAR": 5646,
      "Ġtires": 5647,
      "Ġrise": 5648,
      "Ġshaving": 5649,
      "Ġvolleyball": 5650,
      "ĠPARKED": 5651,
      "Ġscratching": 5652,
      "Ġsaucer": 5653,
      "Ġsurprised": 5654,
      "EE": 5655,
      "IKE": 5656,
      "vil": 5657,
      "yl": 5658,
      "Ġwip": 5659,
      "Ġoncoming": 5660,
      "aling": 5661,
      "igating": 5662,
      "Ġrele": 5663,
      "Ġparalle": 5664,
      "Ġupper": 5665,
      "Ġairline": 5666,
      "Ġcaged": 5667,
      "Ġcamouf": 5668,
      "Ġcolorfully": 5669,
      "Ġserious": 5670,
      "Ġpolo": 5671,
      "ĠMOTOR": 5672,
      "Ġclearly": 5673,
      "Ġfeatured": 5674,
      "Ġcabinetry": 5675,
      "Ġstretch": 5676,
      "Ġmedical": 5677,
      "Ġdragon": 5678,
      "Ġinstalled": 5679,
      "Ġnumerals": 5680,
      "Ġlimit": 5681,
      "Ġpresentation": 5682,
      "Ġsauces": 5683,
      "ĠFRONT": 5684,
      "Ġgesture": 5685,
      "can": 5686,
      "min": 5687,
      "uting": 5688,
      "Ġult": 5689,
      "Ġvert": 5690,
      "Ġbrow": 5691,
      "Ġhour": 5692,
      "Ġdrop": 5693,
      "ĠWashington": 5694,
      "Ġmountainside": 5695,
      "Ġcamping": 5696,
      "Ġcheesecake": 5697,
      "graph": 5698,
      "Ġsinging": 5699,
      "Ġcarpeted": 5700,
      "Ġtwig": 5701,
      "acters": 5702,
      "Ġprinted": 5703,
      "Buses": 5704,
      "Ġbarrels": 5705,
      "Sandwich": 5706,
      "Ġsummer": 5707,
      "ĠCLOCK": 5708,
      "ĠBASEBALL": 5709,
      "Rows": 5710,
      "Work": 5711,
      "du": 5712,
      "what": 5713,
      "Ġtusk": 5714,
      "Ġped": 5715,
      "omebo": 5716,
      "Ġyet": 5717,
      "Ġyarn": 5718,
      "Ġends": 5719,
      "Ġmeatball": 5720,
      "Ġshelving": 5721,
      "Ġcloudless": 5722,
      "Ġnothing": 5723,
      "Ġgrizzly": 5724,
      "Ġveggie": 5725,
      "Ġchains": 5726,
      "Ġrelaxes": 5727,
      "Ġdraped": 5728,
      "Ġcelebration": 5729,
      "Ġlifts": 5730,
      "Ġwaffles": 5731,
      "Ġtimes": 5732,
      "Ġbleachers": 5733,
      "Ġamerican": 5734,
      "Ġparallel": 5735,
      "omebody": 5736,
      "Grey": 5737,
      "TLE": 5738,
      "book": 5739,
      "gn": 5740,
      "kn": 5741,
      "ners": 5742,
      "ney": 5743,
      "nuts": 5744,
      "Ġsanta": 5745,
      "itch": 5746,
      "Ġbrus": 5747,
      "Ġcram": 5748,
      "atic": 5749,
      "Ġrams": 5750,
      "Ġwatermel": 5751,
      "Ġsex": 5752,
      "Ġsporting": 5753,
      "Ġbroc": 5754,
      "ĠBB": 5755,
      "ĠBIR": 5756,
      "Ġstock": 5757,
      "Ġmarking": 5758,
      "Ġbreast": 5759,
      "Ġgreeting": 5760,
      "ĠDI": 5761,
      "ĠDecker": 5762,
      "Ġpicked": 5763,
      "Ġstyled": 5764,
      "lights": 5765,
      "Ġquite": 5766,
      "lined": 5767,
      "Ġmachines": 5768,
      "Ġmakeup": 5769,
      "Ġconsists": 5770,
      "Ġgazing": 5771,
      "Ġbegins": 5772,
      "Road": 5773,
      "Ġseason": 5774,
      "Scissors": 5775,
      "Ġbarbecue": 5776,
      "Ġblueberries": 5777,
      "Ġmembers": 5778,
      "iamese": 5779,
      "Bird": 5780,
      "EB": 5781,
      "Pink": 5782,
      "Park": 5783,
      "mely": 5784,
      "Ġ&": 5785,
      "Ġer": 5786,
      "Ġome": 5787,
      "Ġcable": 5788,
      "Ġinstru": 5789,
      "Ġinstruction": 5790,
      "Ġfer": 5791,
      "eties": 5792,
      "Ġskull": 5793,
      "Ġroute": 5794,
      "lock": 5795,
      "undred": 5796,
      "Ġwallet": 5797,
      "aint": 5798,
      "these": 5799,
      "Ġtiered": 5800,
      "ĠFOR": 5801,
      "ĠBEN": 5802,
      "Ġvarieties": 5803,
      "estri": 5804,
      "ĠDIS": 5805,
      "Ġflaming": 5806,
      "ĠStar": 5807,
      "Ġmusical": 5808,
      "Ġopposing": 5809,
      "Ġbundle": 5810,
      "Ġprojector": 5811,
      "ificial": 5812,
      "Signs": 5813,
      "Ġpenguin": 5814,
      "Spectators": 5815,
      "Ġpreparation": 5816,
      "XT": 5817,
      "cut": 5818,
      "eler": 5819,
      "food": 5820,
      "lue": 5821,
      "oise": 5822,
      "Ġaim": 5823,
      "Ġpal": 5824,
      "Ġcyclists": 5825,
      "Ġfill": 5826,
      "ises": 5827,
      "Ġgot": 5828,
      "onder": 5829,
      "opped": 5830,
      "rid": 5831,
      "used": 5832,
      "Ġcoin": 5833,
      "Ġlens": 5834,
      "ĠWA": 5835,
      "atory": 5836,
      "Ġdarkened": 5837,
      "Ġamb": 5838,
      "Ġcrew": 5839,
      "ixed": 5840,
      "Ġpaddles": 5841,
      "Ġframes": 5842,
      "Ġchoppy": 5843,
      "ILDING": 5844,
      "Ġexposed": 5845,
      "ĠYOUNG": 5846,
      "Ġpresents": 5847,
      "Ġenjoys": 5848,
      "ĠBUILDING": 5849,
      "Ġicy": 5850,
      "Ġarriving": 5851,
      "Ġwrest": 5852,
      "Ġchange": 5853,
      "Ġemergency": 5854,
      "Silver": 5855,
      "Ġcarnival": 5856,
      "YCLE": 5857,
      "Ġtulips": 5858,
      "Ġperfect": 5859,
      "Bed": 5860,
      "PING": 5861,
      "Tru": 5862,
      "bama": 5863,
      "ele": 5864,
      "fruit": 5865,
      "Ġaqu": 5866,
      "Ġoccup": 5867,
      "Ġsanding": 5868,
      "Ġbrand": 5869,
      "Ġpel": 5870,
      "Ġinvest": 5871,
      "ara": 5872,
      "Ġmor": 5873,
      "Ġdom": 5874,
      "oms": 5875,
      "rab": 5876,
      "aster": 5877,
      "Ġrod": 5878,
      "Ġboul": 5879,
      "Ġsword": 5880,
      "ĠWay": 5881,
      "Ġcamper": 5882,
      "Ġcemet": 5883,
      "Ġglides": 5884,
      "Ġfollows": 5885,
      "Ġcharacters": 5886,
      "Ġbuffalo": 5887,
      "Ġextends": 5888,
      "Ġcountertops": 5889,
      "Ġstirring": 5890,
      "Ġregular": 5891,
      "ĠZEB": 5892,
      "Ġtethered": 5893,
      "ĠDESK": 5894,
      "Fam": 5895,
      "Past": 5896,
      "RI": 5897,
      "Tow": 5898,
      "ki": 5899,
      "Ġaler": 5900,
      "Ġtick": 5901,
      "Ġtelling": 5902,
      "Ġtarp": 5903,
      "Ġpant": 5904,
      "Ġfiled": 5905,
      "Ġhur": 5906,
      "Ġhook": 5907,
      "alian": 5908,
      "Ġkicks": 5909,
      "andom": 5910,
      "Ġsomewhat": 5911,
      "Ġtrainer": 5912,
      "Ġhorn": 5913,
      "ĠTA": 5914,
      "Ġbron": 5915,
      "Ġcurvy": 5916,
      "ĠMac": 5917,
      "ĠMEN": 5918,
      "ĠMOU": 5919,
      "inesses": 5920,
      "Ġtanger": 5921,
      "Ġcrashing": 5922,
      "Ġdoesn": 5923,
      "Ġbookshelves": 5924,
      "Ġtaxis": 5925,
      "ippers": 5926,
      "Ġdamaged": 5927,
      "Ġtravelers": 5928,
      "Ġbutterfly": 5929,
      "ĠDelta": 5930,
      "Ġaccompan": 5931,
      "ĠBBQ": 5932,
      "Ant": 5933,
      "Asian": 5934,
      "Con": 5935,
      "Ex": 5936,
      "MB": 5937,
      "PL": 5938,
      "vation": 5939,
      "Ġoct": 5940,
      "Ġsight": 5941,
      "Ġbins": 5942,
      "Ġdeb": 5943,
      "Ġlonely": 5944,
      "omb": 5945,
      "Ġnon": 5946,
      "Ġrounding": 5947,
      "They": 5948,
      "Ġstrewn": 5949,
      "Ġgradu": 5950,
      "Ġbushel": 5951,
      "Ġbusinesses": 5952,
      "inder": 5953,
      "Ġbuckets": 5954,
      "Ġmote": 5955,
      "ĠSOME": 5956,
      "Ġappe": 5957,
      "Ġjumped": 5958,
      "ĠOlymp": 5959,
      "Ġknock": 5960,
      "Ġcameras": 5961,
      "ĠPO": 5962,
      "Ġcurly": 5963,
      "Ġpeers": 5964,
      "Ġofficial": 5965,
      "ENT": 5966,
      "ONG": 5967,
      "Ġsteamed": 5968,
      "Ġsupport": 5969,
      "ILING": 5970,
      "Ġawning": 5971,
      "Ġbalanced": 5972,
      "ĠCOURT": 5973,
      "Ġcucumber": 5974,
      "Ġvacant": 5975,
      "Ġextremely": 5976,
      "ĠBLUE": 5977,
      "Ġsprouts": 5978,
      "Cross": 5979,
      "Dark": 5980,
      "LASS": 5981,
      "Tall": 5982,
      "large": 5983,
      "person": 5984,
      "small": 5985,
      "Ġip": 5986,
      "Ġsid": 5987,
      "itan": 5988,
      "rest": 5989,
      "Ġmer": 5990,
      "Ġgad": 5991,
      "Ġstrong": 5992,
      "Ġcozy": 5993,
      "Ġrese": 5994,
      "adows": 5995,
      "amed": 5996,
      "Ġvi": 5997,
      "Ġvests": 5998,
      "Animals": 5999,
      "Ġmotorized": 6000,
      "Ġmoon": 6001,
      "Ġflowing": 6002,
      "Ġdrum": 6003,
      "ĠCla": 6004,
      "Ġfriz": 6005,
      "Ġdecorating": 6006,
      "Ġnighttime": 6007,
      "Ġcarton": 6008,
      "Ġartificial": 6009,
      "berry": 6010,
      "Ġoverlooks": 6011,
      "Ġentry": 6012,
      "Ġmedic": 6013,
      "Ġpropellers": 6014,
      "Ġsniffs": 6015,
      "Ġfinish": 6016,
      "Airplanes": 6017,
      "Ġburning": 6018,
      "Ġcollege": 6019,
      "Ġborder": 6020,
      "Ġgarnish": 6021,
      "Ġrodeo": 6022,
      "Ġnestled": 6023,
      "SS": 6024,
      "bread": 6025,
      "pipe": 6026,
      "zing": 6027,
      "Ġtide": 6028,
      "ith": 6029,
      "itor": 6030,
      "Ġwi": 6031,
      "Ġmiss": 6032,
      "Ġhoney": 6033,
      "Ġstones": 6034,
      "esting": 6035,
      "othered": 6036,
      "Ġkiss": 6037,
      "Ġplaque": 6038,
      "Ġgrow": 6039,
      "stal": 6040,
      "Ġbackhand": 6041,
      "Ġskiiers": 6042,
      "Ġtrek": 6043,
      "quoise": 6044,
      "Ġmac": 6045,
      "ĠOVER": 6046,
      "shaped": 6047,
      "Ġstriking": 6048,
      "Ġexiting": 6049,
      "Ġpeac": 6050,
      "Ġdeserts": 6051,
      "Ġaccident": 6052,
      "Ġdepartment": 6053,
      "ropol": 6054,
      "Elect": 6055,
      "Ġolive": 6056,
      "Girls": 6057,
      "Ġbelly": 6058,
      "Ġremoved": 6059,
      "Ġwarming": 6060,
      "Ġlimes": 6061,
      "Ġarchitecture": 6062,
      "Ġevergreen": 6063,
      "Ġomelet": 6064,
      "ĠBENCH": 6065,
      "Ġmorning": 6066,
      "Ġgadget": 6067,
      "Water": 6068,
      "dant": 6069,
      "oy": 6070,
      "pa": 6071,
      "tes": 6072,
      "turn": 6073,
      "Ġsells": 6074,
      "Ġwig": 6075,
      "reme": 6076,
      "Ġlun": 6077,
      "lapid": 6078,
      "rict": 6079,
      "Ġgraph": 6080,
      "Ġgrabs": 6081,
      "Ġsmothered": 6082,
      "Ġflan": 6083,
      "airy": 6084,
      "Ġgive": 6085,
      "Ġpours": 6086,
      "Ġlip": 6087,
      "Ġwindy": 6088,
      "Ġpaste": 6089,
      "Ġrather": 6090,
      "Ġrandom": 6091,
      "Ġspices": 6092,
      "apers": 6093,
      "ified": 6094,
      "Ġkiteboarding": 6095,
      "door": 6096,
      "Ġarched": 6097,
      "tock": 6098,
      "Ġmicrowaves": 6099,
      "Ġsubmer": 6100,
      "OWER": 6101,
      "Ġturquoise": 6102,
      "Ġ20": 6103,
      "Slices": 6104,
      "Sliced": 6105,
      "eteria": 6106,
      "Ġattention": 6107,
      "Ġhomes": 6108,
      "Ġwatermelon": 6109,
      "Ġbrocolli": 6110,
      "lapidated": 6111,
      "50": 6112,
      "MAN": 6113,
      "cars": 6114,
      "ead": 6115,
      "iator": 6116,
      "ule": 6117,
      "wise": 6118,
      "rets": 6119,
      "Ġmous": 6120,
      "Ġstars": 6121,
      "uses": 6122,
      "Ġunderwear": 6123,
      "ĠForce": 6124,
      "Ġmarker": 6125,
      "Ġmeet": 6126,
      "Ġpolit": 6127,
      "Ġhaw": 6128,
      "Ġnoses": 6129,
      "rons": 6130,
      "liners": 6131,
      "Ġearly": 6132,
      "CKS": 6133,
      "Ġlounges": 6134,
      "Ġbulld": 6135,
      "Ġdepicts": 6136,
      "Ġeverywhere": 6137,
      "Ġathlete": 6138,
      "ĠGIRL": 6139,
      "Ġgarnished": 6140,
      "Commuter": 6141,
      "Ġflavored": 6142,
      "Ġhistorical": 6143,
      "Ġnursing": 6144,
      "Ġrotten": 6145,
      "Ġcuddling": 6146,
      "Ġescal": 6147,
      "Ġavocado": 6148,
      "ĠVEG": 6149,
      "Ġreferee": 6150,
      "ĠBIRD": 6151,
      "Ġambul": 6152,
      "Antique": 6153,
      "Ġsubmerged": 6154,
      "Home": 6155,
      "dges": 6156,
      "hop": 6157,
      "multiple": 6158,
      "pher": 6159,
      "Ġblaz": 6160,
      "Ġweb": 6161,
      "Ġpale": 6162,
      "Ġcry": 6163,
      "Ġdun": 6164,
      "Ġlux": 6165,
      "estern": 6166,
      "unching": 6167,
      "ridge": 6168,
      "ilding": 6169,
      "using": 6170,
      "Ġskills": 6171,
      "Ġbatters": 6172,
      "Ġblows": 6173,
      "rispy": 6174,
      "Ġpregn": 6175,
      "ĠSL": 6176,
      "ĠBACK": 6177,
      "ĠObama": 6178,
      "ĠCity": 6179,
      "Ġbest": 6180,
      "Ġknow": 6181,
      "Ġpassed": 6182,
      "Ġracer": 6183,
      "Ġmechan": 6184,
      "ĠLAP": 6185,
      "Ġspeeds": 6186,
      "Ġparticip": 6187,
      "Ġfacility": 6188,
      "Ġfound": 6189,
      "Ġcompete": 6190,
      "Ġrising": 6191,
      "ĠNEXT": 6192,
      "Ġslaw": 6193,
      "Ġhistoric": 6194,
      "Ġskyscrapers": 6195,
      "ĠCOMP": 6196,
      "Ġeasy": 6197,
      "ĠCanadian": 6198,
      "Ġshredded": 6199,
      "Ġhummingbird": 6200,
      "Ġdebris": 6201,
      "HING": 6202,
      "Lone": 6203,
      "PLA": 6204,
      "bled": 6205,
      "brush": 6206,
      "cul": 6207,
      "feteria": 6208,
      "lines": 6209,
      "shes": 6210,
      "ĠQ": 6211,
      "Ġsan": 6212,
      "reak": 6213,
      "Ġcraw": 6214,
      "ister": 6215,
      "Ġgated": 6216,
      "Ġtoday": 6217,
      "Ġstalk": 6218,
      "Ġnavy": 6219,
      "alls": 6220,
      "upe": 6221,
      "urple": 6222,
      "Ġtrailing": 6223,
      "Ġshoo": 6224,
      "station": 6225,
      "airs": 6226,
      "Ġlegged": 6227,
      "ĠWEAR": 6228,
      "Ġmirrored": 6229,
      "Ġmetropol": 6230,
      "Ġliner": 6231,
      "ĠDR": 6232,
      "ĠGerman": 6233,
      "Ġmilking": 6234,
      "Ġrugs": 6235,
      "Ġkittens": 6236,
      "Ġdrain": 6237,
      "Ġangry": 6238,
      "Ġindicates": 6239,
      "Ġsafari": 6240,
      "Ġdigging": 6241,
      "Ġrises": 6242,
      "Ġmesh": 6243,
      "Ġbelongings": 6244,
      "Tourists": 6245,
      "Ġkiwi": 6246,
      "Ġraspberries": 6247,
      "undreds": 6248,
      "ails": 6249,
      "back": 6250,
      "iqu": 6251,
      "Ġking": 6252,
      "Ġest": 6253,
      "Ġque": 6254,
      "ingle": 6255,
      "Ġwines": 6256,
      "ready": 6257,
      "rofo": 6258,
      "Ġmilling": 6259,
      "ald": 6260,
      "alog": 6261,
      "ilitary": 6262,
      "Ġshady": 6263,
      "Ġpicks": 6264,
      "Ġcarving": 6265,
      "Ġbusted": 6266,
      "Ġbuying": 6267,
      "tles": 6268,
      "Ġcafeteria": 6269,
      "Ġridden": 6270,
      "ĠOR": 6271,
      "RED": 6272,
      "ĠIM": 6273,
      "Ġbricked": 6274,
      "Ġboot": 6275,
      "ĠHAND": 6276,
      "Ġcrafts": 6277,
      "Ġwetsuits": 6278,
      "GETHER": 6279,
      "ĠAirways": 6280,
      "Ġburnt": 6281,
      "Ġeverything": 6282,
      "Ġtorn": 6283,
      "Airplane": 6284,
      "Ġpushes": 6285,
      "Commercial": 6286,
      "Ġsnuggling": 6287,
      "Ġexpression": 6288,
      "Ġcamouflage": 6289,
      "estrian": 6290,
      "Ġcemetery": 6291,
      "Ġpregnant": 6292,
      "Mult": 6293,
      "dated": 6294,
      "lings": 6295,
      "mat": 6296,
      "sion": 6297,
      "Ġwok": 6298,
      "reo": 6299,
      "Ġhid": 6300,
      "Ġlate": 6301,
      "Ġlion": 6302,
      "riends": 6303,
      "urity": 6304,
      "Ġyach": 6305,
      "Ġchalk": 6306,
      "Ġleas": 6307,
      "ĠAP": 6308,
      "ĠAr": 6309,
      "dog": 6310,
      "ĠSE": 6311,
      "Ġplated": 6312,
      "arian": 6313,
      "Ġguiding": 6314,
      "Ġknick": 6315,
      "Ġbagels": 6316,
      "Ġpaperwork": 6317,
      "Ġlinens": 6318,
      "Ġshelter": 6319,
      "Ġmouths": 6320,
      "ĠHar": 6321,
      "Ġwireless": 6322,
      "Ġwrapping": 6323,
      "Ġdirectional": 6324,
      "Ġcracked": 6325,
      "ĠUMB": 6326,
      "ngth": 6327,
      "Ġcompetitive": 6328,
      "ĠTOGETHER": 6329,
      "Blurry": 6330,
      "Ġstudent": 6331,
      "Ġautumn": 6332,
      "Ġlifted": 6333,
      "Ġdotted": 6334,
      "Ġsplashing": 6335,
      "haired": 6336,
      "Ġbumper": 6337,
      "Graffiti": 6338,
      "Ġtechn": 6339,
      "Ġembracing": 6340,
      "Ġappetiz": 6341,
      "Ġultimate": 6342,
      "Ġalert": 6343,
      "Ġknocked": 6344,
      "Ġmedicine": 6345,
      "ĠUMBRE": 6346,
      "RAS": 6347,
      "hich": 6348,
      "Ġsided": 6349,
      "lets": 6350,
      "Ġthen": 6351,
      "Ġdance": 6352,
      "ening": 6353,
      "Ġlas": 6354,
      "Ġnut": 6355,
      "ilight": 6356,
      "Ġcola": 6357,
      "Ġbeers": 6358,
      "Ġropes": 6359,
      "Ġtabletop": 6360,
      "amon": 6361,
      "Ġvending": 6362,
      "Ġrooms": 6363,
      "Ġalready": 6364,
      "orted": 6365,
      "ĠTRU": 6366,
      "Ġdilapidated": 6367,
      "ĠSAND": 6368,
      "ĠOP": 6369,
      "ĠOne": 6370,
      "Ġclim": 6371,
      "Ġlovely": 6372,
      "RENT": 6373,
      "Ġresid": 6374,
      "ĠGREEN": 6375,
      "Ġcommun": 6376,
      "Ġblocked": 6377,
      "ICE": 6378,
      "ĠJUM": 6379,
      "Ġcondition": 6380,
      "Ġraises": 6381,
      "Ġtransporting": 6382,
      "Ġprocessor": 6383,
      "Ġgazelle": 6384,
      "Ġwashroom": 6385,
      "Ġsplash": 6386,
      "Ġamidst": 6387,
      "Ġparents": 6388,
      "Ġskyscraper": 6389,
      "Ġinspecting": 6390,
      "ĠFLYING": 6391,
      "Ġpretending": 6392,
      "Ġsmoothie": 6393,
      "Ġescalator": 6394,
      "ĠWEARING": 6395,
      "rofoam": 6396,
      "Glass": 6397,
      "gin": 6398,
      "oid": 6399,
      "rings": 6400,
      "uilding": 6401,
      "eries": 6402,
      "Ġinv": 6403,
      "Ġgoose": 6404,
      "Ġlanes": 6405,
      "ilies": 6406,
      "Ġbeat": 6407,
      "verted": 6408,
      "Ġplow": 6409,
      "Ġshadows": 6410,
      "Ġchat": 6411,
      "Ġbuss": 6412,
      "Ġforce": 6413,
      "Ġseeds": 6414,
      "ĠAm": 6415,
      "Ġsandals": 6416,
      "Ġtrey": 6417,
      "Ġmoss": 6418,
      "ĠFrisbe": 6419,
      "Ġdecorate": 6420,
      "Ġbottled": 6421,
      "Ġpillars": 6422,
      "Ġpolicemen": 6423,
      "Ġstyl": 6424,
      "OOK": 6425,
      "Ġgentlemen": 6426,
      "Ġdais": 6427,
      "Ġarchway": 6428,
      "Ġmagazines": 6429,
      "Ġjob": 6430,
      "Ġarrows": 6431,
      "Ġcherries": 6432,
      "Ġexamining": 6433,
      "Ġattending": 6434,
      "Ġdestination": 6435,
      "FFERENT": 6436,
      "Ġlettering": 6437,
      "Ġadmiring": 6438,
      "Ġdescribe": 6439,
      "Ġsquirrel": 6440,
      "Ġsexy": 6441,
      "Ġcrystal": 6442,
      "reakfast": 6443,
      "Ġmetropolitan": 6444,
      "ĠFrisbees": 6445,
      "Side": 6446,
      "Teen": 6447,
      "come": 6448,
      "fu": 6449,
      "ough": 6450,
      "tage": 6451,
      "Ġwoo": 6452,
      "Ġfrisb": 6453,
      "Ġfaded": 6454,
      "Ġdome": 6455,
      "Ġgone": 6456,
      "Ġstate": 6457,
      "orld": 6458,
      "Ġlam": 6459,
      "anted": 6460,
      "Ġotherwise": 6461,
      "Ġseven": 6462,
      "Ġless": 6463,
      "Ġcact": 6464,
      "Ġintric": 6465,
      "ĠBAN": 6466,
      "ĠCAKE": 6467,
      "Ġboxing": 6468,
      "Ġstored": 6469,
      "Ġremains": 6470,
      "ĠPark": 6471,
      "Ġdeckered": 6472,
      "Ġincline": 6473,
      "ĠGLASS": 6474,
      "Ġhovering": 6475,
      "Ġsquares": 6476,
      "NDER": 6477,
      "Ġnecklace": 6478,
      "Ġenth": 6479,
      "Ġholders": 6480,
      "Ġreturns": 6481,
      "Ġbells": 6482,
      "Ġcaptured": 6483,
      "umerous": 6484,
      "ĠSKY": 6485,
      "Ġpumpkins": 6486,
      "Ġathletic": 6487,
      "Ġpaneled": 6488,
      "Vehicles": 6489,
      "ĠDIFFERENT": 6490,
      "Ġbronze": 6491,
      "Ġambulance": 6492,
      "Mother": 6493,
      "Purple": 6494,
      "gate": 6495,
      "iver": 6496,
      "pical": 6497,
      "Ġais": 6498,
      "Ġtar": 6499,
      "Ġpush": 6500,
      "rees": 6501,
      "Ġgown": 6502,
      "ala": 6503,
      "Ġneut": 6504,
      "erst": 6505,
      "ict": 6506,
      "Ġdocks": 6507,
      "Ġyour": 6508,
      "Ġgrouping": 6509,
      "ycling": 6510,
      "ctors": 6511,
      "Ġbacked": 6512,
      "Ġlength": 6513,
      "ĠAROUND": 6514,
      "Ġlittered": 6515,
      "Ġsound": 6516,
      "Ġtriple": 6517,
      "Ġdaylight": 6518,
      "ĠCoc": 6519,
      "Ġwalked": 6520,
      "Ġpita": 6521,
      "pective": 6522,
      "Ġpatrol": 6523,
      "Ġpurch": 6524,
      "Ġwheeler": 6525,
      "ĠLIVING": 6526,
      "ĠHAS": 6527,
      "Ġexotic": 6528,
      "Ġexcept": 6529,
      "Ġhovers": 6530,
      "mally": 6531,
      "Ġgates": 6532,
      "Ġearth": 6533,
      "Ġtrashcan": 6534,
      "Ġretail": 6535,
      "Ġshould": 6536,
      "Ġcondu": 6537,
      "Ġcalcul": 6538,
      "ĠPLAY": 6539,
      "Ġstoplights": 6540,
      "Ġlabel": 6541,
      "strip": 6542,
      "Ġcerem": 6543,
      "Ġsecurity": 6544,
      "Ġadjusts": 6545,
      "ĠCHAIR": 6546,
      "Ġbundled": 6547,
      "Ġwaffle": 6548,
      "Ġnapping": 6549,
      "innamon": 6550,
      "Soccer": 6551,
      "Ġgrapefruit": 6552,
      "Ġaccompanied": 6553,
      "Ġoctop": 6554,
      "ĠUMBREL": 6555,
      "Ben": 6556,
      "Friends": 6557,
      "arent": 6558,
      "cient": 6559,
      "hy": 6560,
      "ivers": 6561,
      "pit": 6562,
      "piece": 6563,
      "rs": 6564,
      "zard": 6565,
      "Ġ8": 6566,
      "Ġaff": 6567,
      "Ġtilted": 6568,
      "Ġoak": 6569,
      "Ġsamp": 6570,
      "Ġwro": 6571,
      "erc": 6572,
      "Ġfist": 6573,
      "Ġmy": 6574,
      "Ġmill": 6575,
      "Ġduff": 6576,
      "Ġgla": 6577,
      "enting": 6578,
      "Ġlite": 6579,
      "usi": 6580,
      "Ġflips": 6581,
      "Ġsnowsuit": 6582,
      "Ġbasic": 6583,
      "Ġairlines": 6584,
      "Ġformally": 6585,
      "Ġseed": 6586,
      "Ġoverg": 6587,
      "Ġheater": 6588,
      "Ġteal": 6589,
      "ĠTennis": 6590,
      "ĠWOOD": 6591,
      "Ġsunsh": 6592,
      "Ġcontest": 6593,
      "Ġcaboose": 6594,
      "Ġtelevisions": 6595,
      "Ġbarric": 6596,
      "Ġorch": 6597,
      "ize": 6598,
      "ĠLA": 6599,
      "Ġhairy": 6600,
      "ĠDon": 6601,
      "Ġmascot": 6602,
      "bank": 6603,
      "Ġgrinds": 6604,
      "Trains": 6605,
      "Ġtwilight": 6606,
      "Ġpuppies": 6607,
      "Ġ10": 6608,
      "Ġsectional": 6609,
      "Ġauto": 6610,
      "Ġradiator": 6611,
      "Ġjockeys": 6612,
      "Ġfixture": 6613,
      "Ġgoalie": 6614,
      "Ġreclining": 6615,
      "Passenger": 6616,
      "Ġbarely": 6617,
      "ĠSKIING": 6618,
      "Crowd": 6619,
      "Ġhorizon": 6620,
      "Altered": 6621,
      "Ġvisitors": 6622,
      "Ġascending": 6623,
      "ĠItalian": 6624,
      "Family": 6625,
      "Ġfrizbee": 6626,
      "turned": 6627,
      "ĠIMAGE": 6628,
      "AG": 6629,
      "Des": 6630,
      "Eight": 6631,
      "Parking": 6632,
      "Ste": 6633,
      "Tw": 6634,
      "bucks": 6635,
      "girl": 6636,
      "hold": 6637,
      "iently": 6638,
      "well": 6639,
      "Ġtr": 6640,
      "itude": 6641,
      "Ġwonder": 6642,
      "Ġcinnamon": 6643,
      "Ġfu": 6644,
      "Ġanim": 6645,
      "Ġanalog": 6646,
      "Ġtofu": 6647,
      "raut": 6648,
      "lable": 6649,
      "iche": 6650,
      "Ġspan": 6651,
      "Ġspark": 6652,
      "Ġenorm": 6653,
      "Ġsandwhich": 6654,
      "Ġbiking": 6655,
      "ĠSHE": 6656,
      "Ġsunflowers": 6657,
      "ĠONE": 6658,
      "Ġamuse": 6659,
      "Ġlapse": 6660,
      "cause": 6661,
      "Ġstairway": 6662,
      "ĠSTU": 6663,
      "Ġfunction": 6664,
      "Ġaccess": 6665,
      "Ġclaw": 6666,
      "Ġjuic": 6667,
      "Ġreflects": 6668,
      "Ġcalves": 6669,
      "Ġextending": 6670,
      "Ġoddly": 6671,
      "Beautiful": 6672,
      "Ġexamines": 6673,
      "Ġrecord": 6674,
      "Ġdivided": 6675,
      "Fruits": 6676,
      "exican": 6677,
      "ĠALL": 6678,
      "Ġpencils": 6679,
      "Player": 6680,
      "ĠWIND": 6681,
      "Ġmannequin": 6682,
      "Ġhidden": 6683,
      "ĠOPEN": 6684,
      "ĠJUMPING": 6685,
      "Ġaisle": 6686,
      "Ġenormous": 6687,
      "Breakfast": 6688,
      "cess": 6689,
      "lor": 6690,
      "oram": 6691,
      "uis": 6692,
      "Ġ9": 6693,
      "ĠMan": 6694,
      "Ġtip": 6695,
      "Ġtired": 6696,
      "Ġwel": 6697,
      "ream": 6698,
      "Ġcane": 6699,
      "Ġdang": 6700,
      "Ġnamed": 6701,
      "Ġwhis": 6702,
      "olog": 6703,
      "Ġbeached": 6704,
      "Ġbecause": 6705,
      "Ġske": 6706,
      "ebe": 6707,
      "Ġfrog": 6708,
      "Ġgrain": 6709,
      "Ġwaling": 6710,
      "style": 6711,
      "Ġkits": 6712,
      "Ġwaterfront": 6713,
      "Ġairstrip": 6714,
      "Ġjug": 6715,
      "Ġsear": 6716,
      "Ġhedge": 6717,
      "ppost": 6718,
      "play": 6719,
      "Ġplatters": 6720,
      "ĠPol": 6721,
      "issor": 6722,
      "Ġhazy": 6723,
      "ĠMon": 6724,
      "Ġtypical": 6725,
      "Ġscenery": 6726,
      "Ġcandies": 6727,
      "ĠGO": 6728,
      "Ġequestrian": 6729,
      "Ġpackages": 6730,
      "Ġseem": 6731,
      "Ġwashed": 6732,
      "Ġfora": 6733,
      "ETABLE": 6734,
      "Ġclad": 6735,
      "Ind": 6736,
      "Ġgener": 6737,
      "Ġhandleb": 6738,
      "Ġadvertisements": 6739,
      "Ġburrit": 6740,
      "Ġradishes": 6741,
      "Ġowners": 6742,
      "Ġtaxiing": 6743,
      "Ġavai": 6744,
      "Ġeveryone": 6745,
      "Ġpresented": 6746,
      "Beach": 6747,
      "ĠSMILING": 6748,
      "Ġrecliner": 6749,
      "ĠCanada": 6750,
      "Ġpilot": 6751,
      "Ġroasted": 6752,
      "Ġgalloping": 6753,
      "ĠGIRAFFE": 6754,
      "Ġcitrus": 6755,
      "Ġwiping": 6756,
      "ĠDISPLA": 6757,
      "Ġtangerines": 6758,
      "Ġlamppost": 6759,
      "Ġenthusi": 6760,
      "Ġceremony": 6761,
      "Ġamusement": 6762,
      "Numerous": 6763,
      "WAY": 6764,
      "apped": 6765,
      "hor": 6766,
      "nd": 6767,
      "oro": 6768,
      "ola": 6769,
      "pine": 6770,
      "tower": 6771,
      "inery": 6772,
      "Ġwrist": 6773,
      "anse": 6774,
      "Ġcame": 6775,
      "athered": 6776,
      "Ġfas": 6777,
      "Ġmama": 6778,
      "Ġhug": 6779,
      "Ġhooks": 6780,
      "Ġdots": 6781,
      "esame": 6782,
      "urgers": 6783,
      "usting": 6784,
      "iles": 6785,
      "Ġlaund": 6786,
      "ament": 6787,
      "Ġvar": 6788,
      "Ġvent": 6789,
      "Ġsurfboarding": 6790,
      "boards": 6791,
      "Ġlicks": 6792,
      "Ġheight": 6793,
      "Ġspars": 6794,
      "ago": 6795,
      "Ġmarkers": 6796,
      "Ġpatrons": 6797,
      "Ġmonster": 6798,
      "Ġshell": 6799,
      "ĠMc": 6800,
      "Ġvanilla": 6801,
      "Ġswims": 6802,
      "Ġfoal": 6803,
      "ISB": 6804,
      "Ġseafood": 6805,
      "Plane": 6806,
      "Ġspinning": 6807,
      "Ġreadies": 6808,
      "Ġpumpkin": 6809,
      "Room": 6810,
      "Ġbarriers": 6811,
      "ĠFRISB": 6812,
      "Ġcreepy": 6813,
      "Ġrobot": 6814,
      "Ġwould": 6815,
      "Ġhandicap": 6816,
      "Ġfuton": 6817,
      "Ġbouncing": 6818,
      "Decor": 6819,
      "Workers": 6820,
      "Ġcramped": 6821,
      "Ġappearing": 6822,
      "Ġpeacock": 6823,
      "Ġhawk": 6824,
      "pherd": 6825,
      "Ġneutral": 6826,
      "Ġavailable": 6827,
      "Cooked": 6828,
      "IF": 6829,
      "Military": 6830,
      "Part": 6831,
      "UB": 6832,
      "Up": 6833,
      "brown": 6834,
      "bably": 6835,
      "dgerator": 6836,
      "sized": 6837,
      "ther": 6838,
      "Ġofa": 6839,
      "Ġmur": 6840,
      "Ġdad": 6841,
      "Ġgn": 6842,
      "Ġtourn": 6843,
      "opes": 6844,
      "Ġthread": 6845,
      "Ġchin": 6846,
      "Ġvane": 6847,
      "seat": 6848,
      "ugly": 6849,
      "Ġlives": 6850,
      "Ġcourts": 6851,
      "Seagull": 6852,
      "ĠFed": 6853,
      "ĠFLO": 6854,
      "icking": 6855,
      "ĠPar": 6856,
      "Ġmem": 6857,
      "rawn": 6858,
      "ĠNo": 6859,
      "ĠHIGH": 6860,
      "Ġexerc": 6861,
      "Ġflash": 6862,
      "Ġpartial": 6863,
      "Ġsubst": 6864,
      "Ġdistrict": 6865,
      "bbles": 6866,
      "ucch": 6867,
      "Ġpositions": 6868,
      "Ġpeeks": 6869,
      "Ġdragging": 6870,
      "Ġtanker": 6871,
      "Ġexpanse": 6872,
      "Ġcaptivity": 6873,
      "Ġremoving": 6874,
      "zzarella": 6875,
      "Ġtrolly": 6876,
      "UTER": 6877,
      "Ġburner": 6878,
      "Ġsleigh": 6879,
      "Ġconversing": 6880,
      "ĠPHONE": 6881,
      "Ġshaved": 6882,
      "Ġstormy": 6883,
      "Ġburners": 6884,
      "Ġfedora": 6885,
      "Ġrecording": 6886,
      "Ġinstrument": 6887,
      "yees": 6888,
      "Ġtroph": 6889,
      "Art": 6890,
      "Ġclimbs": 6891,
      "ĠCoca": 6892,
      "Ġsparsely": 6893,
      "Ġtournament": 6894,
      "Cow": 6895,
      "Cup": 6896,
      "fting": 6897,
      "izz": 6898,
      "ians": 6899,
      "ties": 6900,
      "walks": 6901,
      "Ġtrot": 6902,
      "Ġancient": 6903,
      "Ġhuddle": 6904,
      "Ġgang": 6905,
      "Ġstu": 6906,
      "Ġstay": 6907,
      "orks": 6908,
      "arded": 6909,
      "undown": 6910,
      "Ġplun": 6911,
      "Ġshine": 6912,
      "Ġpersonnel": 6913,
      "antic": 6914,
      "Ġupwards": 6915,
      "Ġvess": 6916,
      "Ġraquet": 6917,
      "Ġsidecar": 6918,
      "Ġwindm": 6919,
      "Ġscram": 6920,
      "Ġscissor": 6921,
      "Ġhanded": 6922,
      "orth": 6923,
      "Ġflorets": 6924,
      "Ġmozzarella": 6925,
      "Ġcolum": 6926,
      "ĠSC": 6927,
      "Ġchews": 6928,
      "Ġimport": 6929,
      "Ġmarching": 6930,
      "Ġstereo": 6931,
      "Ġways": 6932,
      "Ġpeach": 6933,
      "Ġworkstation": 6934,
      "Groups": 6935,
      "quee": 6936,
      "ALK": 6937,
      "ĠUNDER": 6938,
      "Ġretro": 6939,
      "Ġapproach": 6940,
      "coat": 6941,
      "Ġpractices": 6942,
      "ĠiP": 6943,
      "Ġreflective": 6944,
      "Ġcasual": 6945,
      "Ġdrapes": 6946,
      "Ġhooded": 6947,
      "Ġdelivering": 6948,
      "Ġcharging": 6949,
      "Ġremod": 6950,
      "Ġfinishing": 6951,
      "Ġfocused": 6952,
      "Ġrecre": 6953,
      "Ġmoment": 6954,
      "Phone": 6955,
      "ĠFROM": 6956,
      "Ġarchitect": 6957,
      "Ġdropping": 6958,
      "Ġrenovated": 6959,
      "Ġhunched": 6960,
      "Ġcontemporary": 6961,
      "Ġipod": 6962,
      "ĠVEGETABLE": 6963,
      "Ġoctopus": 6964,
      "ĠDISPLAY": 6965,
      "ucchini": 6966,
      "Cle": 6967,
      "Night": 6968,
      "Sp": 6969,
      "Wild": 6970,
      "baseball": 6971,
      "rin": 6972,
      "Ġbug": 6973,
      "Ġpers": 6974,
      "Ġinc": 6975,
      "Ġinj": 6976,
      "Ġfine": 6977,
      "Ġmight": 6978,
      "Ġmice": 6979,
      "Ġlat": 6980,
      "omy": 6981,
      "Ġreins": 6982,
      "Ġvine": 6983,
      "Ġsnap": 6984,
      "Ġbuy": 6985,
      "Ġgift": 6986,
      "eech": 6987,
      "Ġcityscape": 6988,
      "rise": 6989,
      "Ġlitter": 6990,
      "Ġspir": 6991,
      "Ġspeech": 6992,
      "Ġfencing": 6993,
      "Ġbib": 6994,
      "ĠCD": 6995,
      "ĠCal": 6996,
      "Ġrefridgerator": 6997,
      "Ġforehead": 6998,
      "Ġraining": 6999,
      "ĠMIR": 7000,
      "ĠLYING": 7001,
      "Ġsalon": 7002,
      "Ġstrips": 7003,
      "Ġpeak": 7004,
      "Ġflowery": 7005,
      "Ġengaging": 7006,
      "Ġsettings": 7007,
      "Ġbaseman": 7008,
      "Ġgarb": 7009,
      "Ġconcert": 7010,
      "Ġpackaged": 7011,
      "Ġwaste": 7012,
      "Stat": 7013,
      "structed": 7014,
      "Ġbusinessman": 7015,
      "Chicken": 7016,
      "Ġpropell": 7017,
      "Ġwheelie": 7018,
      "Variety": 7019,
      "ĠBOAT": 7020,
      "Ġsections": 7021,
      "Ġcomplex": 7022,
      "Ġnumeral": 7023,
      "ĠANIM": 7024,
      "Ġbandana": 7025,
      "Ġvendors": 7026,
      "Ġpopulated": 7027,
      "Ġlanguages": 7028,
      "Ġspaces": 7029,
      "Ġornament": 7030,
      "Ġdestro": 7031,
      "ĠĠĠĠĠĠĠĠ": 7032,
      "Ġpressing": 7033,
      "Ġbeanie": 7034,
      "Ġsolar": 7035,
      "Ġranch": 7036,
      "Ġhandicapped": 7037,
      "ELLOW": 7038,
      "ĠGiraffe": 7039,
      "ĠRoad": 7040,
      "Bowl": 7041,
      "Ġcongre": 7042,
      "Ġcurrently": 7043,
      "Ġticket": 7044,
      "Ġgadgets": 7045,
      "Ġcrawling": 7046,
      "Ġcactus": 7047,
      "Ġovergrown": 7048,
      "ĠWINDOW": 7049,
      "00": 7050,
      "DY": 7051,
      "LD": 7052,
      "fight": 7053,
      "hift": 7054,
      "mes": 7055,
      "sed": 7056,
      "sia": 7057,
      "Ġwired": 7058,
      "Ġpud": 7059,
      "Ġfet": 7060,
      "Ġdanger": 7061,
      "orial": 7062,
      "asts": 7063,
      "uters": 7064,
      "ica": 7065,
      "ictor": 7066,
      "Ġcole": 7067,
      "Ġplum": 7068,
      "Ġparrots": 7069,
      "Ġlav": 7070,
      "Ġpoor": 7071,
      "Ġpoured": 7072,
      "ieces": 7073,
      "Ġwaist": 7074,
      "entr": 7075,
      "aneous": 7076,
      "Ġaltered": 7077,
      "Ġslippers": 7078,
      "Ġmosa": 7079,
      "ĠTE": 7080,
      "ĠWorld": 7081,
      "Ġviews": 7082,
      "Ġvegetarian": 7083,
      "Ġstandard": 7084,
      "Ġsunlit": 7085,
      "ĠBe": 7086,
      "Ġstuffing": 7087,
      "Ġproper": 7088,
      "Ġguide": 7089,
      "Ġloft": 7090,
      "Ġbarb": 7091,
      "estic": 7092,
      "Ġplantains": 7093,
      "gram": 7094,
      "Ġhaircut": 7095,
      "Ġbreads": 7096,
      "Ġpear": 7097,
      "autifully": 7098,
      "Ġcarried": 7099,
      "Ġwildebe": 7100,
      "ROR": 7101,
      "Chocolate": 7102,
      "Ġmachinery": 7103,
      "Ġcaps": 7104,
      "Ġgrooming": 7105,
      "Ġwarns": 7106,
      "Motorc": 7107,
      "Door": 7108,
      "Dogs": 7109,
      "Ġdense": 7110,
      "ĠPLANE": 7111,
      "Ġdescending": 7112,
      "Ġreception": 7113,
      "Ġactiv": 7114,
      "ĠFIRE": 7115,
      "Ġornaments": 7116,
      "Ġcompartments": 7117,
      "Ġidle": 7118,
      "Outside": 7119,
      "ROWN": 7120,
      "Ġponies": 7121,
      "Ġmarkings": 7122,
      "Ġinstructions": 7123,
      "ĠOlympic": 7124,
      "Ġtrekking": 7125,
      "erstate": 7126,
      "Ġconductor": 7127,
      "Ġaffixed": 7128,
      "Ġsunshine": 7129,
      "Ġlaundry": 7130,
      "Ġimportant": 7131,
      "ĠANIMAL": 7132,
      "Baked": 7133,
      "GH": 7134,
      "Im": 7135,
      "drawn": 7136,
      "of": 7137,
      "yal": 7138,
      "Ġurn": 7139,
      "anna": 7140,
      "Ġgull": 7141,
      "rail": 7142,
      "ckey": 7143,
      "Ġnature": 7144,
      "ello": 7145,
      "eline": 7146,
      "Ġcocon": 7147,
      "Ġdozens": 7148,
      "Ġburied": 7149,
      "Ġlive": 7150,
      "Ġhandled": 7151,
      "Ġunderground": 7152,
      "Ġteap": 7153,
      "Ġteac": 7154,
      "Ġbanquet": 7155,
      "Ġbunt": 7156,
      "Ġshowroom": 7157,
      "Ġgoble": 7158,
      "ĠShe": 7159,
      "ĠSouth": 7160,
      "ĠBR": 7161,
      "ĠBar": 7162,
      "arious": 7163,
      "ĠCO": 7164,
      "Ġprobably": 7165,
      "Ġherded": 7166,
      "Ġpatiently": 7167,
      "Ġshells": 7168,
      "ĠLIT": 7169,
      "Ġsalmon": 7170,
      "Ġexper": 7171,
      "Ġhoop": 7172,
      "Ġmarketplace": 7173,
      "Ġconcentr": 7174,
      "Ġtrails": 7175,
      "unging": 7176,
      "Ġstruct": 7177,
      "Ġjew": 7178,
      "Ġutensil": 7179,
      "Ġnoodle": 7180,
      "CHING": 7181,
      "Ġparasail": 7182,
      "Ġlevels": 7183,
      "Ġawaits": 7184,
      "Ġpencil": 7185,
      "Ġconsumption": 7186,
      "Ġflamingos": 7187,
      "ĠZEBRAS": 7188,
      "ĠTAKING": 7189,
      "Ġbulldog": 7190,
      "ĠSLOP": 7191,
      "Ġqueen": 7192,
      "Ġresidence": 7193,
      "Ġdaisies": 7194,
      "Ġcalculator": 7195,
      "Ġforaging": 7196,
      "Ġlivestock": 7197,
      "ĠMIRROR": 7198,
      "Ġmosaic": 7199,
      "Back": 7200,
      "Din": 7201,
      "Dis": 7202,
      "Happy": 7203,
      "Over": 7204,
      "Somebody": 7205,
      "Single": 7206,
      "VD": 7207,
      "ah": 7208,
      "group": 7209,
      "ham": 7210,
      "little": 7211,
      "tail": 7212,
      "vd": 7213,
      "Ġ(": 7214,
      "Ġet": 7215,
      "Ġsesame": 7216,
      "Ġbarge": 7217,
      "Ġberry": 7218,
      "Ġdu": 7219,
      "Ġginger": 7220,
      "Ġnasty": 7221,
      "iders": 7222,
      "Ġroam": 7223,
      "Ġripen": 7224,
      "Ġgrove": 7225,
      "Ġdownward": 7226,
      "Ġvans": 7227,
      "Ġpokes": 7228,
      "Ġelev": 7229,
      "Ġzucchini": 7230,
      "rellas": 7231,
      "Ġslanted": 7232,
      "Ġtails": 7233,
      "agie": 7234,
      "ĠTeddy": 7235,
      "Ġbridle": 7236,
      "Ġdiaper": 7237,
      "Ġdiagon": 7238,
      "Ġfilthy": 7239,
      "quare": 7240,
      "umpled": 7241,
      "ĠSP": 7242,
      "ĠSh": 7243,
      "ĠBIKE": 7244,
      "aced": 7245,
      "ĠMexican": 7246,
      "Ġflowering": 7247,
      "Ġspec": 7248,
      "Ġspewing": 7249,
      "Ġpacking": 7250,
      "Ġwedge": 7251,
      "Ġmaster": 7252,
      "Ġcrab": 7253,
      "Ġcloths": 7254,
      "Ġglow": 7255,
      "Ġmakeshift": 7256,
      "alloween": 7257,
      "Dozens": 7258,
      "Ġdepicted": 7259,
      "Ġcushions": 7260,
      "Banana": 7261,
      "Ġneedle": 7262,
      "Ġcarefully": 7263,
      "Ġpeacefully": 7264,
      "market": 7265,
      "trak": 7266,
      "ĠGiraffes": 7267,
      "Ġblooming": 7268,
      "Ġfleet": 7269,
      "Ġcroissant": 7270,
      "Ġvertical": 7271,
      "ĠTRUCK": 7272,
      "Ġsubstance": 7273,
      "ek": 7274,
      "fy": 7275,
      "not": 7276,
      "nut": 7277,
      "po": 7278,
      "si": 7279,
      "Ġugly": 7280,
      "inary": 7281,
      "Ġcables": 7282,
      "lect": 7283,
      "Ġtheater": 7284,
      "Ġfis": 7285,
      "Ġdairy": 7286,
      "Ġgor": 7287,
      "omas": 7288,
      "oring": 7289,
      "riotic": 7290,
      "Ġsnowing": 7291,
      "Ġrap": 7292,
      "Ġunders": 7293,
      "Ġdem": 7294,
      "Ġenough": 7295,
      "Ġfilm": 7296,
      "Ġfences": 7297,
      "ĠSan": 7298,
      "Ġcamel": 7299,
      "Ġproce": 7300,
      "Ġadded": 7301,
      "Ġhighchair": 7302,
      "Ġlinen": 7303,
      "Ġattach": 7304,
      "ĠDo": 7305,
      "Ġpeaches": 7306,
      "Ġhoagie": 7307,
      "Ġobsc": 7308,
      "ĠINSIDE": 7309,
      "Ġsquats": 7310,
      "Ġlandscap": 7311,
      "Ġteamm": 7312,
      "Ġbloss": 7313,
      "Ġhamm": 7314,
      "Ġhousing": 7315,
      "THREE": 7316,
      "Ġcharger": 7317,
      "flower": 7318,
      "Ġtossed": 7319,
      "Ġinstead": 7320,
      "Ġcustomer": 7321,
      "Ġproduct": 7322,
      "Ġtrimmed": 7323,
      "Ġsnuggled": 7324,
      "ccupied": 7325,
      "Ġsupermarket": 7326,
      "Ġbiscuits": 7327,
      "Ġscrub": 7328,
      "Ġcrocheted": 7329,
      "Ġstockings": 7330,
      "Ġblazer": 7331,
      "Ġestab": 7332,
      "ĠFLOOR": 7333,
      "LOT": 7334,
      "Or": 7335,
      "UG": 7336,
      "You": 7337,
      "lift": 7338,
      "ox": 7339,
      "Ġtier": 7340,
      "Ġsuck": 7341,
      "Ġfell": 7342,
      "Ġga": 7343,
      "ckled": 7344,
      "Ġni": 7345,
      "Ġcoaster": 7346,
      "Ġchill": 7347,
      "Ġchinese": 7348,
      "amel": 7349,
      "Ġsidewalks": 7350,
      "Ġoverturned": 7351,
      "Ġlego": 7352,
      "Ġweathered": 7353,
      "Ġboarded": 7354,
      "Ġrat": 7355,
      "Ġrally": 7356,
      "Ġspring": 7357,
      "ape": 7358,
      "ĠSW": 7359,
      "Ġheadband": 7360,
      "Ġheadlights": 7361,
      "ĠBOW": 7362,
      "Ġclip": 7363,
      "Ġproud": 7364,
      "Ġstoves": 7365,
      "Ġknacks": 7366,
      "Ġbarber": 7367,
      "Ġhousehold": 7368,
      "ĠME": 7369,
      "Ġpanoram": 7370,
      "arters": 7371,
      "Ġsalt": 7372,
      "ĠHalloween": 7373,
      "Ġpeaking": 7374,
      "Ġhockey": 7375,
      "Ġspeaks": 7376,
      "Ġeyed": 7377,
      "Ġlands": 7378,
      "ĠEx": 7379,
      "Ġrooft": 7380,
      "Ġdepar": 7381,
      "Ġgrilling": 7382,
      "Ġmedian": 7383,
      "Ġdeliver": 7384,
      "usky": 7385,
      "ĠSUIT": 7386,
      "Ġcheeses": 7387,
      "Ġcombing": 7388,
      "ĊĊĊĊ": 7389,
      "VERAL": 7390,
      "Ġsilhouet": 7391,
      "Ġflavors": 7392,
      "Ġchannel": 7393,
      "Hands": 7394,
      "Ġoxen": 7395,
      "Ġnuzzling": 7396,
      "Ġyacht": 7397,
      "Ġstylized": 7398,
      "ĠGOING": 7399,
      "ĠFRISBEE": 7400,
      "Ġarchitectural": 7401,
      "Ġdestroyed": 7402,
      "Ġstructures": 7403,
      "Ġrapids": 7404,
      "IES": 7405,
      "NER": 7406,
      "Pit": 7407,
      "Sl": 7408,
      "cell": 7409,
      "je": 7410,
      "long": 7411,
      "over": 7412,
      "shed": 7413,
      "zebra": 7414,
      "Ġ-": 7415,
      "Ġiv": 7416,
      "Ġaboard": 7417,
      "Ġaffe": 7418,
      "Ġcrus": 7419,
      "erk": 7420,
      "isted": 7421,
      "Ġann": 7422,
      "Ġding": 7423,
      "Ġtoned": 7424,
      "Ġtook": 7425,
      "Ġlunging": 7426,
      "icans": 7427,
      "Ġbeautifully": 7428,
      "Ġreact": 7429,
      "ffice": 7430,
      "oodle": 7431,
      "Ġshack": 7432,
      "Ġyummy": 7433,
      "Ġcho": 7434,
      "igns": 7435,
      "Ġsigning": 7436,
      "Ġbubble": 7437,
      "Ġhash": 7438,
      "Ġlips": 7439,
      "Ġmotorboat": 7440,
      "ented": 7441,
      "Ġalpine": 7442,
      "Ġlightly": 7443,
      "Ġdrizz": 7444,
      "ĠWar": 7445,
      "Ġviewer": 7446,
      "ĠSp": 7447,
      "Ġbroad": 7448,
      "arium": 7449,
      "ĠCOW": 7450,
      "ĠCOL": 7451,
      "Ġcontact": 7452,
      "Ġtaller": 7453,
      "tenance": 7454,
      "Ġpatriotic": 7455,
      "clock": 7456,
      "Ġhalfway": 7457,
      "ĠDE": 7458,
      "Ġlayed": 7459,
      "Ġworked": 7460,
      "Ġclothed": 7461,
      "Ġstylish": 7462,
      "roadway": 7463,
      "bbling": 7464,
      "Ġpacks": 7465,
      "ORT": 7466,
      "Ġexterior": 7467,
      "ĠKit": 7468,
      "ĠiPhone": 7469,
      "meal": 7470,
      "Ġsorts": 7471,
      "ABY": 7472,
      "ILL": 7473,
      "ĠYELLOW": 7474,
      "Ġstudying": 7475,
      "Ġcaptive": 7476,
      "Ġhamburgers": 7477,
      "Ġwander": 7478,
      "Ġornamental": 7479,
      "ULL": 7480,
      "Ġtattoos": 7481,
      "Ġblades": 7482,
      "Ġcontraption": 7483,
      "Ġrhino": 7484,
      "Ġemploy": 7485,
      "Ġinstructor": 7486,
      "Ġpolitical": 7487,
      "ĠCOMPUTER": 7488,
      "Multi": 7489,
      "Ġleashes": 7490,
      "Ġintricate": 7491,
      "ĠSTUFF": 7492,
      "Ġcolumns": 7493,
      "Doorway": 7494,
      "Ġactivities": 7495,
      "Ġteapot": 7496,
      "CYCLE": 7497,
      "Le": 7498,
      "Well": 7499,
      "dry": 7500,
      "ihua": 7501,
      "ob": 7502,
      "press": 7503,
      "rm": 7504,
      "uf": 7505,
      "vas": 7506,
      "whe": 7507,
      "atian": 7508,
      "Ġhides": 7509,
      "Ġstages": 7510,
      "irgin": 7511,
      "rier": 7512,
      "olding": 7513,
      "Ġrig": 7514,
      "street": 7515,
      "And": 7516,
      "irty": 7517,
      "epad": 7518,
      "Ġcave": 7519,
      "Ġscra": 7520,
      "ĠTREE": 7521,
      "Ġpreform": 7522,
      "fficult": 7523,
      "dock": 7524,
      "uggling": 7525,
      "ĠBIG": 7526,
      "Ġserver": 7527,
      "Ġattack": 7528,
      "Ġsalsa": 7529,
      "Ġamaz": 7530,
      "Ġdocking": 7531,
      "Ġpauses": 7532,
      "Ġbutcher": 7533,
      "ĠRed": 7534,
      "almatian": 7535,
      "Ġchecker": 7536,
      "Skate": 7537,
      "Boat": 7538,
      "Ġmusc": 7539,
      "IRT": 7540,
      "Ġglider": 7541,
      "Ġmitts": 7542,
      "Ġturb": 7543,
      "Ġturtle": 7544,
      "Ġexpired": 7545,
      "Ġtosses": 7546,
      "Ġcranes": 7547,
      "Ġtaste": 7548,
      "Ġmaintain": 7549,
      "Ġreceive": 7550,
      "ratul": 7551,
      "ĠEngland": 7552,
      "Ġthose": 7553,
      "Ġwoven": 7554,
      "Ġhorizont": 7555,
      "Bicycles": 7556,
      "Interior": 7557,
      "Ġpelican": 7558,
      "Ġpantry": 7559,
      "Ġshooting": 7560,
      "Ġwooly": 7561,
      "Ġburrito": 7562,
      "Ġmurky": 7563,
      "Ġestablish": 7564,
      "Ġaffection": 7565,
      "ihuahua": 7566,
      "Bear": 7567,
      "Cute": 7568,
      "Del": 7569,
      "Pot": 7570,
      "Row": 7571,
      "Sail": 7572,
      "Tables": 7573,
      "mers": 7574,
      "occupied": 7575,
      "Ġver": 7576,
      "Ġtil": 7577,
      "Ġoat": 7578,
      "Ġsell": 7579,
      "Ġping": 7580,
      "Ġtherm": 7581,
      "Ġlant": 7582,
      "Ġnook": 7583,
      "utter": 7584,
      "iddle": 7585,
      "Ġgrave": 7586,
      "Ġchanging": 7587,
      "stop": 7588,
      "Ġbuds": 7589,
      "Ġbackseat": 7590,
      "Ġtoilette": 7591,
      "Ġconv": 7592,
      "Those": 7593,
      "ĠAl": 7594,
      "Ġinterstate": 7595,
      "Ġrink": 7596,
      "Ġbrowns": 7597,
      "Ġswamp": 7598,
      "Ġswift": 7599,
      "Ġfireman": 7600,
      "Ġteens": 7601,
      "Ġdifficult": 7602,
      "iforn": 7603,
      "ĠBroadway": 7604,
      "ĠOCE": 7605,
      "ĠChe": 7606,
      "Ġproje": 7607,
      "Ġcontrolled": 7608,
      "Ġmarks": 7609,
      "othic": 7610,
      "ĠTHERE": 7611,
      "Ġhello": 7612,
      "Ġpaneling": 7613,
      "ĠLIGHT": 7614,
      "lica": 7615,
      "ĠDVD": 7616,
      "Ġsalads": 7617,
      "lender": 7618,
      "ĠRoman": 7619,
      "Ġstyles": 7620,
      "Ġpretz": 7621,
      "ĠChina": 7622,
      "ensive": 7623,
      "AST": 7624,
      "Ġstrap": 7625,
      "Ġcasting": 7626,
      "Ġsepia": 7627,
      "Ġcertain": 7628,
      "Ġobserve": 7629,
      "ĠTRACKS": 7630,
      "Busy": 7631,
      "Ġbrass": 7632,
      "Ġfryer": 7633,
      "ĠSKATEBOARD": 7634,
      "resident": 7635,
      "Ġsauerk": 7636,
      "Ġcuriously": 7637,
      "Ġhearts": 7638,
      "Ġathletes": 7639,
      "Ġspreads": 7640,
      "Bedroom": 7641,
      "Truck": 7642,
      "Ġaquarium": 7643,
      "Ġboulders": 7644,
      "Electronic": 7645,
      "ĠUMBRELLA": 7646,
      "Ġhandlebars": 7647,
      "orous": 7648,
      "Ġelevator": 7649,
      "Ġhammock": 7650,
      "ifornia": 7651,
      "ĠOCEAN": 7652,
      "New": 7653,
      "Ref": 7654,
      "SH": 7655,
      "TO": 7656,
      "ec": 7657,
      "post": 7658,
      "ĠThere": 7659,
      "inating": 7660,
      "Ġbone": 7661,
      "Ġbring": 7662,
      "Ġcant": 7663,
      "Ġcris": 7664,
      "Ġfind": 7665,
      "Ġfold": 7666,
      "Ġhundreds": 7667,
      "Ġtot": 7668,
      "elve": 7669,
      "ards": 7670,
      "Ġbases": 7671,
      "Ġmotes": 7672,
      "Ġclocktower": 7673,
      "Ġwak": 7674,
      "Ġwavy": 7675,
      "enty": 7676,
      "Ġthroughout": 7677,
      "aps": 7678,
      "Ġcolla": 7679,
      "Ġcolumn": 7680,
      "Ġprey": 7681,
      "ĠSOM": 7682,
      "ĠSiamese": 7683,
      "Ġstandup": 7684,
      "Ġbroth": 7685,
      "ĠOLD": 7686,
      "aces": 7687,
      "ĠClock": 7688,
      "Ġunt": 7689,
      "Ġloves": 7690,
      "REN": 7691,
      "Ġraces": 7692,
      "Ġrowboat": 7693,
      "Ġgreet": 7694,
      "auty": 7695,
      "Ġlayers": 7696,
      "Ġpaying": 7697,
      "Ġfamous": 7698,
      "ĠRV": 7699,
      "born": 7700,
      "Ġgloomy": 7701,
      "Ġchecked": 7702,
      "Ġcrazy": 7703,
      "Ġgathers": 7704,
      "Ġentire": 7705,
      "Ġhammer": 7706,
      "ETHING": 7707,
      "Ġmodified": 7708,
      "Ġtrailers": 7709,
      "Ġmisses": 7710,
      "Ġsurroundings": 7711,
      "Skateboarders": 7712,
      "Ġribbons": 7713,
      "Ġmaintenance": 7714,
      "Ġunused": 7715,
      "Ġfairly": 7716,
      "Ġplank": 7717,
      "Ġarrive": 7718,
      "Ġdivider": 7719,
      "Ġblueberry": 7720,
      "Sandwiches": 7721,
      "Ġextreme": 7722,
      "ĠLeague": 7723,
      "IEW": 7724,
      "Ġassembly": 7725,
      "Ġdemonstration": 7726,
      "Ġspreading": 7727,
      "Ġbrushed": 7728,
      "ĠStarbucks": 7729,
      "Ġinvestigating": 7730,
      "Ġfrisby": 7731,
      "Ġwrought": 7732,
      "Ġanimated": 7733,
      "Ġdangling": 7734,
      "Seagulls": 7735,
      "Ġplunger": 7736,
      "Ġrecreational": 7737,
      "Pitcher": 7738,
      "Ġemployee": 7739,
      "ĠSOMETHING": 7740,
      "Bri": 7741,
      "Cut": 7742,
      "Cats": 7743,
      "Eld": 7744,
      "High": 7745,
      "PEOPLE": 7746,
      "Pieces": 7747,
      "Tooth": 7748,
      "Umb": 7749,
      "WIC": 7750,
      "cis": 7751,
      "down": 7752,
      "kids": 7753,
      "nas": 7754,
      "surf": 7755,
      "tel": 7756,
      "water": 7757,
      "Ġtit": 7758,
      "Ġsigh": 7759,
      "Ġwid": 7760,
      "Ġpoodle": 7761,
      "Ġdiced": 7762,
      "Ġtone": 7763,
      "opard": 7764,
      "Ġcoated": 7765,
      "Ġbeam": 7766,
      "eburger": 7767,
      "Ġroot": 7768,
      "Ġboiled": 7769,
      "Ġyear": 7770,
      "Ġven": 7771,
      "stick": 7772,
      "stract": 7773,
      "Ġplayfully": 7774,
      "Ġcombo": 7775,
      "Ġbackside": 7776,
      "ildren": 7777,
      "ĠAsia": 7778,
      "ĠWest": 7779,
      "Ġhyd": 7780,
      "Ġgoers": 7781,
      "INE": 7782,
      "ĠBus": 7783,
      "ĠBear": 7784,
      "ĠBROWN": 7785,
      "ĠOTHER": 7786,
      "ĠCol": 7787,
      "Ġunb": 7788,
      "HERE": 7789,
      "Ġprotru": 7790,
      "Ġcrowds": 7791,
      "ustral": 7792,
      "ĠPC": 7793,
      "ĠPh": 7794,
      "Ġwhose": 7795,
      "ĠHOT": 7796,
      "olden": 7797,
      "ĠGRA": 7798,
      "ĠOFF": 7799,
      "Ġseeing": 7800,
      "Ġpaddock": 7801,
      "Ġswimsuit": 7802,
      "Ġquaint": 7803,
      "Ġrounded": 7804,
      "Ġceilings": 7805,
      "Ġladen": 7806,
      "OUR": 7807,
      "Ġfollow": 7808,
      "Ġstreamers": 7809,
      "Ġgroomed": 7810,
      "Ġglaze": 7811,
      "Ġeyeglasses": 7812,
      "Ġ12": 7813,
      "Ġpatterns": 7814,
      "Ġlifegu": 7815,
      "Dough": 7816,
      "Ġmagnet": 7817,
      "ĠITS": 7818,
      "Ġlearn": 7819,
      "Ġkayaks": 7820,
      "Ġsleeve": 7821,
      "Ġminimal": 7822,
      "Ġbordered": 7823,
      "amsung": 7824,
      "ĠCARS": 7825,
      "Ġidly": 7826,
      "Ġblade": 7827,
      "Ġtongs": 7828,
      "Players": 7829,
      "Ġrhin": 7830,
      "Ġemployees": 7831,
      "known": 7832,
      "Ġwrestling": 7833,
      "Ġgraduation": 7834,
      "ĠClaus": 7835,
      "Ġlunges": 7836,
      "iques": 7837,
      "Ġappetizers": 7838,
      "Ġcommunity": 7839,
      "ĠAmtrak": 7840,
      "Ġtrotting": 7841,
      "ĠCalifornia": 7842,
      "Ġjewel": 7843,
      "Ġunderside": 7844,
      "ĠBOWL": 7845,
      "Ġsauerkraut": 7846,
      "Gri": 7847,
      "Is": 7848,
      "Suit": 7849,
      "Te": 7850,
      "US": 7851,
      "Vase": 7852,
      "Wh": 7853,
      "bus": 7854,
      "blue": 7855,
      "dale": 7856,
      "filled": 7857,
      "iant": 7858,
      "net": 7859,
      "oked": 7860,
      "Ġaward": 7861,
      "Ġtack": 7862,
      "Ġsund": 7863,
      "Ġsquee": 7864,
      "Ġbake": 7865,
      "Ġwrong": 7866,
      "ances": 7867,
      "rep": 7868,
      "roning": 7869,
      "Ġnine": 7870,
      "Ġere": 7871,
      "Ġshark": 7872,
      "Ġouthouse": 7873,
      "Ġoutdated": 7874,
      "Ġbust": 7875,
      "Ġleopard": 7876,
      "Ġzo": 7877,
      "Ġconstructed": 7878,
      "Ġshepherd": 7879,
      "Ġbrownies": 7880,
      "Ġlighter": 7881,
      "ifying": 7882,
      "Ġpreser": 7883,
      "ĠSw": 7884,
      "Ġtriangle": 7885,
      "Ġsafe": 7886,
      "ĠFran": 7887,
      "ĠBABY": 7888,
      "Ġunoccupied": 7889,
      "Ġunknown": 7890,
      "Ġprof": 7891,
      "Ġknot": 7892,
      "Ġcabs": 7893,
      "Ġpitches": 7894,
      "Ġcanvas": 7895,
      "Ġsleepy": 7896,
      "ĠTHEIR": 7897,
      "Ġnovel": 7898,
      "Ġpeer": 7899,
      "Ġpeels": 7900,
      "Ġstates": 7901,
      "Ġpartition": 7902,
      "ĠRUN": 7903,
      "ensely": 7904,
      "Ġquarters": 7905,
      "Ġmodels": 7906,
      "Ġleafless": 7907,
      "Ġbushy": 7908,
      "ĠATV": 7909,
      "Ġpresenting": 7910,
      "Ġlaughs": 7911,
      "Ġstarts": 7912,
      "Ġreplica": 7913,
      "Ġburgers": 7914,
      "Toy": 7915,
      "Ġbrace": 7916,
      "Ġsucc": 7917,
      "Ġsweep": 7918,
      "Ġregion": 7919,
      "Ġnightstands": 7920,
      "ĠCOMING": 7921,
      "marine": 7922,
      "Outdoor": 7923,
      "Ġfoamy": 7924,
      "Bowls": 7925,
      "Ġdiscussing": 7926,
      "Ġscoop": 7927,
      "Ġmaneuver": 7928,
      "ĠMOTORCYCLE": 7929,
      "PLANE": 7930,
      "Ġmerch": 7931,
      "Ġresemb": 7932,
      "Ġgraphic": 7933,
      "Ġtechnolog": 7934,
      "ĠSANDWIC": 7935,
      "ĠBANAN": 7936,
      "Ġjuicer": 7937,
      "ĠVEGETABLES": 7938,
      "Ġperspective": 7939,
      "Ġestablishment": 7940,
      "Bas": 7941,
      "DR": 7942,
      "Something": 7943,
      "ae": 7944,
      "aul": 7945,
      "gle": 7946,
      "haw": 7947,
      "ound": 7948,
      "Ġage": 7949,
      "Ġti": 7950,
      "Ġtell": 7951,
      "itti": 7952,
      "Ġbitten": 7953,
      "Ġcrying": 7954,
      "Ġfellow": 7955,
      "ene": 7956,
      "Ġlic": 7957,
      "Ġstalks": 7958,
      "Ġstaff": 7959,
      "otel": 7960,
      "icular": 7961,
      "igious": 7962,
      "Ġcoupe": 7963,
      "Ġbeauty": 7964,
      "Ġlaunch": 7965,
      "Ġbatch": 7966,
      "Ġvines": 7967,
      "Ġcaramel": 7968,
      "Ġparks": 7969,
      "Ġairliners": 7970,
      "Ġgifts": 7971,
      "Ġherds": 7972,
      "Ġlizard": 7973,
      "Ġoveralls": 7974,
      "Ġconverted": 7975,
      "Ġshears": 7976,
      "Ġrundown": 7977,
      "Ġboating": 7978,
      "ĠTOWER": 7979,
      "IND": 7980,
      "Ġarts": 7981,
      "ĠBOOK": 7982,
      "ĠCON": 7983,
      "Ġsteal": 7984,
      "Ġwheat": 7985,
      "Ġpanting": 7986,
      "ĠLE": 7987,
      "Ġblank": 7988,
      "Ġperformance": 7989,
      "inton": 7990,
      "Ġshovel": 7991,
      "ĠEle": 7992,
      "Ġfeature": 7993,
      "Ġstyrofoam": 7994,
      "Ġnewborn": 7995,
      "ĠStates": 7996,
      "ĠAREA": 7997,
      "Ġanticip": 7998,
      "Ġgrind": 7999,
      "ĠVictor": 8000,
      "ĠKreme": 8001,
      "Ġironing": 8002,
      "Ġmicrophones": 8003,
      "Ġabund": 8004,
      "Ġnewspapers": 8005,
      "Ġlabels": 8006,
      "Ġalleyway": 8007,
      "Ġcheeseburger": 8008,
      "Ġgroceries": 8009,
      "Ġrecently": 8010,
      "Ġrecipe": 8011,
      "Shot": 8012,
      "ĠCOUPLE": 8013,
      "Ġwreath": 8014,
      "Ġcompanion": 8015,
      "ĠIndia": 8016,
      "Ġrobes": 8017,
      "Ġfixed": 8018,
      "ĠLego": 8019,
      "Ġnavig": 8020,
      "Ġcrumbs": 8021,
      "Ġhours": 8022,
      "Ġtwigs": 8023,
      "Ġflanked": 8024,
      "Ġmechanical": 8025,
      "Ġchatting": 8026,
      "Desk": 8027,
      "Ġskelet": 8028,
      "Ġmemorial": 8029,
      "Ġinjured": 8030,
      "Ġspiral": 8031,
      "Ġpropellor": 8032,
      "Image": 8033,
      "dryer": 8034,
      "Ġoatmeal": 8035,
      "Ġprojection": 8036,
      "Elderly": 8037,
      "Ġjewelry": 8038,
      "Cake": 8039,
      "Front": 8040,
      "Go": 8041,
      "Jet": 8042,
      "UP": 8043,
      "Wind": 8044,
      "aii": 8045,
      "iing": 8046,
      "mble": 8047,
      "various": 8048,
      "Ġast": 8049,
      "Ġable": 8050,
      "Ġtshirt": 8051,
      "Ġoar": 8052,
      "Ġsure": 8053,
      "Ġpong": 8054,
      "Ġinner": 8055,
      "Ġhusky": 8056,
      "Ġgig": 8057,
      "omber": 8058,
      "rack": 8059,
      "orner": 8060,
      "organ": 8061,
      "unks": 8062,
      "Ġnorm": 8063,
      "Ġmang": 8064,
      "icles": 8065,
      "Ġcoaches": 8066,
      "Ġbeads": 8067,
      "Ġeffe": 8068,
      "Ġyaw": 8069,
      "atee": 8070,
      "Ġvers": 8071,
      "Ġblown": 8072,
      "Ġbud": 8073,
      "Ġloose": 8074,
      "Ġleast": 8075,
      "Ġzomb": 8076,
      "Ġconven": 8077,
      "ĠAustral": 8078,
      "Ġscall": 8079,
      "Ġveg": 8080,
      "Ġspraw": 8081,
      "Ġlivingroom": 8082,
      "Ġfirefight": 8083,
      "Ġenc": 8084,
      "Ġsoars": 8085,
      "Ġmount": 8086,
      "ĠWALL": 8087,
      "Ġhitched": 8088,
      "Ġsunb": 8089,
      "ĠBl": 8090,
      "acy": 8091,
      "ĠCar": 8092,
      "Ġboxed": 8093,
      "Ġprogram": 8094,
      "Ġlock": 8095,
      "Ġstovet": 8096,
      "ustr": 8097,
      "shopped": 8098,
      "Ġcurls": 8099,
      "Ġallowed": 8100,
      "hicago": 8101,
      "ĠNavy": 8102,
      "Ġfreely": 8103,
      "Ġhelmeted": 8104,
      "Ġsubmarine": 8105,
      "Ġcurbside": 8106,
      "Ġcenterpiece": 8107,
      "Ġoverlook": 8108,
      "Ġgrate": 8109,
      "Ġdiscs": 8110,
      "ĠKrispy": 8111,
      "monds": 8112,
      "Ġrearview": 8113,
      "uzzle": 8114,
      "ĠSTAND": 8115,
      "Ġoperated": 8116,
      "Ġpleas": 8117,
      "Shirt": 8118,
      "Ġrepairs": 8119,
      "Snowboarders": 8120,
      "Ġpineapples": 8121,
      "Ġcottage": 8122,
      "Ġroasting": 8123,
      "Ġgoofy": 8124,
      "Ġnavigating": 8125,
      "Ġrevealing": 8126,
      "Ġreleasing": 8127,
      "Ġmeatballs": 8128,
      "Ġparticipating": 8129,
      "Ġinvol": 8130,
      "ĠPLAYER": 8131,
      "ĠMcDon": 8132,
      "Ġtrophy": 8133,
      "Ġscrambled": 8134,
      "ĠLITTLE": 8135,
      "Ġdemol": 8136,
      "cellaneous": 8137,
      "Ġswiftly": 8138,
      "Ġlifeguard": 8139,
      "As": 8140,
      "Bag": 8141,
      "Farm": 8142,
      "Mini": 8143,
      "ORE": 8144,
      "VING": 8145,
      "ailer": 8146,
      "creen": 8147,
      "obs": 8148,
      "she": 8149,
      "ued": 8150,
      "Ġaer": 8151,
      "Ġwants": 8152,
      "held": 8153,
      "Ġpra": 8154,
      "Ġpac": 8155,
      "atively": 8156,
      "Ġlast": 8157,
      "las": 8158,
      "lay": 8159,
      "rig": 8160,
      "Ġthink": 8161,
      "Ġcoal": 8162,
      "Ġbeaks": 8163,
      "Ġplac": 8164,
      "Ġparlor": 8165,
      "Ġyield": 8166,
      "Ġflipped": 8167,
      "Ġrapid": 8168,
      "Ġbedside": 8169,
      "Ġforrest": 8170,
      "umber": 8171,
      "Ġseal": 8172,
      "Ġcouples": 8173,
      "Ġalt": 8174,
      "Ġalmonds": 8175,
      "Ġshearing": 8176,
      "Ġslal": 8177,
      "agle": 8178,
      "Ġbanners": 8179,
      "Ġkiteboard": 8180,
      "lydes": 8181,
      "ĠWhite": 8182,
      "uffs": 8183,
      "Ġtricycle": 8184,
      "Ġsunflower": 8185,
      "venile": 8186,
      "Ġcoral": 8187,
      "shot": 8188,
      "Ġcanned": 8189,
      "Ġpancake": 8190,
      "Ġlooked": 8191,
      "Ġsurrounds": 8192,
      "Ġmats": 8193,
      "Ġamen": 8194,
      "ĠHaw": 8195,
      "Ġfours": 8196,
      "Ġfacial": 8197,
      "Ġquiche": 8198,
      "Ġwedges": 8199,
      "Ġneath": 8200,
      "Ġvisor": 8201,
      "Ġseper": 8202,
      "Ġwaterski": 8203,
      "ĠYARD": 8204,
      "Ġ11": 8205,
      "Ġabstract": 8206,
      "Ġcelebratory": 8207,
      "Ġexha": 8208,
      "Ġindicate": 8209,
      "Ġbuliding": 8210,
      "Ġbooths": 8211,
      "NTAIN": 8212,
      "AMP": 8213,
      "Ġstroll": 8214,
      "Ġsweets": 8215,
      "okia": 8216,
      "Ġmelon": 8217,
      "ĠWATCHING": 8218,
      "Ġpeaceful": 8219,
      "ebox": 8220,
      "Ġfolks": 8221,
      "Ġdetails": 8222,
      "Ġbison": 8223,
      "Ġnails": 8224,
      "Ġbarbeque": 8225,
      "ĠOUTSIDE": 8226,
      "ĠSURFING": 8227,
      "Ġmessing": 8228,
      "Ġstreetlights": 8229,
      "Ġrenovation": 8230,
      "Ġretriever": 8231,
      "Chef": 8232,
      "Ġdiscussion": 8233,
      "Ġoversized": 8234,
      "Ġgestures": 8235,
      "Ġseasoning": 8236,
      "Ġhurdle": 8237,
      "ĠArmy": 8238,
      "Ġenthusiast": 8239,
      "Ġvarying": 8240,
      "Ġwindmill": 8241,
      "Dinner": 8242,
      "LOTS": 8243,
      "Ġyawning": 8244,
      "Ġstovetop": 8245,
      "Bot": 8246,
      "Bread": 8247,
      "Ducks": 8248,
      "Kid": 8249,
      "Public": 8250,
      "SING": 8251,
      "SES": 8252,
      "UY": 8253,
      "Ur": 8254,
      "cows": 8255,
      "eal": 8256,
      "guy": 8257,
      "pace": 8258,
      "zer": 8259,
      "Ġspen": 8260,
      "Ġpub": 8261,
      "Ġcel": 8262,
      "atten": 8263,
      "ison": 8264,
      "Ġank": 8265,
      "Ġmp": 8266,
      "Ġdre": 8267,
      "raction": 8268,
      "irie": 8269,
      "Ġnative": 8270,
      "Ġwhip": 8271,
      "Ġbearing": 8272,
      "ader": 8273,
      "Ġpeoples": 8274,
      "Ġfrow": 8275,
      "Ġfixes": 8276,
      "Ġchihuahua": 8277,
      "Ġchunks": 8278,
      "Ġuphill": 8279,
      "Ġvel": 8280,
      "Ġfloored": 8281,
      "ulture": 8282,
      "Ġsnowman": 8283,
      "Ġplayful": 8284,
      "Ġkitchenette": 8285,
      "Ġconvert": 8286,
      "Ġintense": 8287,
      "Ġbrownie": 8288,
      "ĠTRE": 8289,
      "Ġgoatee": 8290,
      "Ġcheek": 8291,
      "Ġsunrise": 8292,
      "ickey": 8293,
      "vender": 8294,
      "ĠCat": 8295,
      "Ġpromin": 8296,
      "dering": 8297,
      "Ġremain": 8298,
      "ĠPep": 8299,
      "ship": 8300,
      "Ġcontrolling": 8301,
      "Ġmark": 8302,
      "Ġmemo": 8303,
      "Ġmonk": 8304,
      "Ġraincoat": 8305,
      "weed": 8306,
      "Ġmatches": 8307,
      "ANG": 8308,
      "ATION": 8309,
      "ĠHY": 8310,
      "ĠGROUND": 8311,
      "Ġplatforms": 8312,
      "Ġdirects": 8313,
      "osaur": 8314,
      "Ġpackaging": 8315,
      "Ġflatbread": 8316,
      "Ġlocations": 8317,
      "scale": 8318,
      "Ġmason": 8319,
      "ETTING": 8320,
      "avids": 8321,
      "Ġtoddlers": 8322,
      "ĠKing": 8323,
      "Ġtwenty": 8324,
      "Ġrepres": 8325,
      "Ġbits": 8326,
      "Pictures": 8327,
      "Ġsaddled": 8328,
      "Ġpinned": 8329,
      "Ġaprons": 8330,
      "ADY": 8331,
      "Ġpopular": 8332,
      "ĠROAD": 8333,
      "Ġrecei": 8334,
      "ĠCOUCH": 8335,
      "Ġburned": 8336,
      "Ġactivity": 8337,
      "Ġrepairing": 8338,
      "Ġseasoned": 8339,
      "Ġattend": 8340,
      "Ġparasols": 8341,
      "Ġpilots": 8342,
      "CTION": 8343,
      "Ġcontempl": 8344,
      "Ġdrops": 8345,
      "Teenag": 8346,
      "Ġbarricade": 8347,
      "Ġwelcome": 8348,
      "Individual": 8349,
      "Ġvessel": 8350,
      "Ġpudding": 8351,
      "Ġcoconut": 8352,
      "Ġdiagonal": 8353,
      "Ġrooftop": 8354,
      "Ġpreforming": 8355,
      "Ġhorizontal": 8356,
      "avidson": 8357,
      "Book": 8358,
      "Bunch": 8359,
      "Every": 8360,
      "Few": 8361,
      "Lunch": 8362,
      "Rail": 8363,
      "VES": 8364,
      "What": 8365,
      "col": 8366,
      "das": 8367,
      "works": 8368,
      "Ġ$": 8369,
      "Ġu": 8370,
      "ĠSe": 8371,
      "Ġtightly": 8372,
      "Ġwestern": 8373,
      "Ġcred": 8374,
      "arth": 8375,
      "Ġdolly": 8376,
      "Ġtol": 8377,
      "etro": 8378,
      "unt": 8379,
      "Ġmantel": 8380,
      "elt": 8381,
      "otion": 8382,
      "uttered": 8383,
      "Ġwhine": 8384,
      "Ġcob": 8385,
      "Ġcos": 8386,
      "Ġroped": 8387,
      "Ġbored": 8388,
      "Ġpars": 8389,
      "Ġlace": 8390,
      "Ġlazy": 8391,
      "Ġgiven": 8392,
      "ieval": 8393,
      "Ġdisp": 8394,
      "Ġglassware": 8395,
      "Ġscore": 8396,
      "Ġhandler": 8397,
      "Ġhandling": 8398,
      "Ġoffers": 8399,
      "ĠWOR": 8400,
      "Ġbrocc": 8401,
      "ĠCUT": 8402,
      "ĠCELL": 8403,
      "ĠChicago": 8404,
      "Ġunp": 8405,
      "aki": 8406,
      "vish": 8407,
      "Ġpatient": 8408,
      "Ġforehand": 8409,
      "Ġplanted": 8410,
      "Ġrescue": 8411,
      "Ġattraction": 8412,
      "ĠLi": 8413,
      "Ġhairdryer": 8414,
      "Ġedges": 8415,
      "ĠRA": 8416,
      "Ġtanks": 8417,
      "Ġarranging": 8418,
      "Ġpointy": 8419,
      "Stud": 8420,
      "Ġmasks": 8421,
      "Ġcrash": 8422,
      "Boxes": 8423,
      "ĠTHREE": 8424,
      "Ġhamster": 8425,
      "brant": 8426,
      "Ġdollar": 8427,
      "Ġjuvenile": 8428,
      "Shel": 8429,
      "Ġruler": 8430,
      "Ġ18": 8431,
      "Ġcelebrate": 8432,
      "Ġdumpster": 8433,
      "Ġshrub": 8434,
      "Ġdenim": 8435,
      "Ġsprayed": 8436,
      "Ġworkspace": 8437,
      "Ġbundt": 8438,
      "ĠLOTS": 8439,
      "Ġsneaker": 8440,
      "Ġneedles": 8441,
      "ĠCola": 8442,
      "Ġcockpit": 8443,
      "Ġreligious": 8444,
      "Ġcongratul": 8445,
      "Ġcroissants": 8446,
      "Ġtusked": 8447,
      "Ġera": 8448,
      "Ġluxury": 8449,
      "ĠLAYING": 8450,
      "ĠDonuts": 8451,
      "Ġwonderful": 8452,
      "Ġgnar": 8453,
      "ĠFedEx": 8454,
      "Umbrellas": 8455,
      "cisco": 8456,
      "ĠSANDWICH": 8457,
      "Ġlicense": 8458,
      "Ġslalom": 8459,
      "Ġfrowning": 8460,
      "Ġconvertible": 8461,
      "ĠTREES": 8462,
      "'re": 8463,
      "Building": 8464,
      "Corner": 8465,
      "Dess": 8466,
      "Father": 8467,
      "Nine": 8468,
      "NING": 8469,
      "OC": 8470,
      "Pan": 8471,
      "Par": 8472,
      "Sep": 8473,
      "color": 8474,
      "ove": 8475,
      "oke": 8476,
      "Ġamp": 8477,
      "inted": 8478,
      "Ġtipped": 8479,
      "Ġocc": 8480,
      "itol": 8481,
      "Ġpins": 8482,
      "Ġcyl": 8483,
      "rob": 8484,
      "Ġhugs": 8485,
      "Ġgalley": 8486,
      "Ġgummy": 8487,
      "Ġstro": 8488,
      "rad": 8489,
      "ilia": 8490,
      "elines": 8491,
      "Ġdoily": 8492,
      "Ġbound": 8493,
      "Ġlavender": 8494,
      "Ġchick": 8495,
      "ander": 8496,
      "ami": 8497,
      "Ġvia": 8498,
      "story": 8499,
      "stairs": 8500,
      "phants": 8501,
      "ential": 8502,
      "Ġscar": 8503,
      "Ġtren": 8504,
      "Ġswitch": 8505,
      "Ġbows": 8506,
      "Ġeachother": 8507,
      "Ġdives": 8508,
      "Ġfilming": 8509,
      "ĠSpan": 8510,
      "ĠSamsung": 8511,
      "Ġtriangular": 8512,
      "Ġsales": 8513,
      "ĠBirthday": 8514,
      "ĠBlue": 8515,
      "acing": 8516,
      "Ġemo": 8517,
      "Ġdinosaur": 8518,
      "ometer": 8519,
      "Ġbark": 8520,
      "Ġpurses": 8521,
      "ĠMain": 8522,
      "Ġhalfpipe": 8523,
      "ĠLittle": 8524,
      "Ġbetter": 8525,
      "Ġphotographing": 8526,
      "ĠNokia": 8527,
      "ĠHigh": 8528,
      "Ġstately": 8529,
      "Ġwildflowers": 8530,
      "Ġconcer": 8531,
      "Ġarmchair": 8532,
      "Ġswimmers": 8533,
      "Ġcrooked": 8534,
      "ETS": 8535,
      "iffel": 8536,
      "ĠVol": 8537,
      "ĠVIEW": 8538,
      "Ġcostumed": 8539,
      "ĠKEP": 8540,
      "Ġleafs": 8541,
      "Ġparasailer": 8542,
      "Ġangel": 8543,
      "Ġchilds": 8544,
      "Ġicebox": 8545,
      "Ġcruising": 8546,
      "Ġgranola": 8547,
      "Ġbundles": 8548,
      "Ġawait": 8549,
      "Ġadorn": 8550,
      "Ġpeanuts": 8551,
      "Ġknitting": 8552,
      "Ġmovies": 8553,
      "Ġbadm": 8554,
      "Ġminutes": 8555,
      "Ġnowhere": 8556,
      "Photograph": 8557,
      "ĠAng": 8558,
      "Ġdefensive": 8559,
      "Ġautomobiles": 8560,
      "ĠCHILDREN": 8561,
      "Ġsocializing": 8562,
      "Ġsymbols": 8563,
      "Ġcrochet": 8564,
      "Ġbrowsing": 8565,
      "Ġferris": 8566,
      "Pasta": 8567,
      "Ġdrums": 8568,
      "Ġmouses": 8569,
      "ĠQue": 8570,
      "Benches": 8571,
      "Ġduffel": 8572,
      "Ġspanning": 8573,
      "Motorcyclists": 8574,
      "ĠANIMALS": 8575,
      "Orn": 8576,
      "Ġsilhouetted": 8577,
      "Suitcases": 8578,
      "ĠFrancisco": 8579,
      "DRANT": 8580,
      "Ġskeleton": 8581,
      "aiian": 8582,
      "Ġnormal": 8583,
      "attended": 8584,
      "Ġvelvet": 8585,
      "ĠKEPT": 8586,
      "Col": 8587,
      "Office": 8588,
      "Smo": 8589,
      "au": 8590,
      "gund": 8591,
      "iel": 8592,
      "oh": 8593,
      "six": 8594,
      "vice": 8595,
      "Ġtells": 8596,
      "Ġtesting": 8597,
      "era": 8598,
      "Ġanten": 8599,
      "Ġhoo": 8600,
      "Ġtoll": 8601,
      "Ġlinger": 8602,
      "unkin": 8603,
      "asy": 8604,
      "rio": 8605,
      "Ġwhom": 8606,
      "vern": 8607,
      "Ġlavish": 8608,
      "Ġgrows": 8609,
      "Ġgraf": 8610,
      "Ġchoc": 8611,
      "Ġbattle": 8612,
      "Ġflush": 8613,
      "igned": 8614,
      "Ġrared": 8615,
      "Ġwaking": 8616,
      "ksw": 8617,
      "Ġhandmade": 8618,
      "Ġhandstand": 8619,
      "Ġflour": 8620,
      "lesc": 8621,
      "Ġsoil": 8622,
      "Ġsodas": 8623,
      "ifier": 8624,
      "Ġheadset": 8625,
      "Ġarches": 8626,
      "ĠFla": 8627,
      "ĠParking": 8628,
      "Ġracers": 8629,
      "Ġcannot": 8630,
      "Ġnumbered": 8631,
      "ANGE": 8632,
      "Ġcleaner": 8633,
      "LES": 8634,
      "Ġpenny": 8635,
      "Ġlaps": 8636,
      "Ġbasement": 8637,
      "rung": 8638,
      "Ġfacade": 8639,
      "Ġwraps": 8640,
      "Ġmessages": 8641,
      "Ġrugby": 8642,
      "ĠStation": 8643,
      "ĠVW": 8644,
      "ĠVASE": 8645,
      "Ġmisty": 8646,
      "Ġmiscellaneous": 8647,
      "Ġmedieval": 8648,
      "Ġrub": 8649,
      "Planes": 8650,
      "Ġprim": 8651,
      "Ġstarring": 8652,
      "Guys": 8653,
      "Ġtransported": 8654,
      "Ġauditor": 8655,
      "Ġburgund": 8656,
      "ĠWHILE": 8657,
      "Ġguards": 8658,
      "ĠPARKING": 8659,
      "Ġreceiving": 8660,
      "Ġparachutes": 8661,
      "ĠUSA": 8662,
      "Ġtripod": 8663,
      "ĠSIGNS": 8664,
      "ĠAIRPLANE": 8665,
      "ĠWINE": 8666,
      "ĠMarket": 8667,
      "Ġmannequins": 8668,
      "dressed": 8669,
      "rabic": 8670,
      "ĠMOUNTAIN": 8671,
      "Ġluxurious": 8672,
      "ĠLAPT": 8673,
      "ĠHarley": 8674,
      "iversity": 8675,
      "Ġsampling": 8676,
      "Ġsearching": 8677,
      "Ġincred": 8678,
      "Ġdangerous": 8679,
      "Ġdingy": 8680,
      "Ġloveseat": 8681,
      "Ġgigantic": 8682,
      "organized": 8683,
      "Ġsprawled": 8684,
      "Ġdemolished": 8685,
      "Ġprairie": 8686,
      "lydesdale": 8687,
      "Ġamenities": 8688,
      "ĠSpanish": 8689,
      "Ġauditorium": 8690,
      "Ġburgundy": 8691,
      "Action": 8692,
      "LY": 8693,
      "Pots": 8694,
      "TS": 8695,
      "Wine": 8696,
      "cat": 8697,
      "kward": 8698,
      "wed": 8699,
      "with": 8700,
      "Ġtips": 8701,
      "Ġsiamese": 8702,
      "ites": 8703,
      "Ġwades": 8704,
      "Ġpeop": 8705,
      "rec": 8706,
      "Ġonward": 8707,
      "Ġdated": 8708,
      "Ġtots": 8709,
      "lad": 8710,
      "children": 8711,
      "icrow": 8712,
      "Ġbeams": 8713,
      "Ġskim": 8714,
      "Ġren": 8715,
      "Ġwomans": 8716,
      "Ġripped": 8717,
      "Ġgras": 8718,
      "Ġupscale": 8719,
      "Ġoverview": 8720,
      "Ġbento": 8721,
      "Ġcompon": 8722,
      "Ġmens": 8723,
      "Ġalways": 8724,
      "Ġtaco": 8725,
      "Ġhandrail": 8726,
      "agna": 8727,
      "Ġbanks": 8728,
      "Ġenvel": 8729,
      "ĠSk": 8730,
      "Ġhilltop": 8731,
      "ĠFord": 8732,
      "ĠBM": 8733,
      "Ġstationed": 8734,
      "Ġcontin": 8735,
      "Ġknight": 8736,
      "ĠPresident": 8737,
      "Ġbreaks": 8738,
      "Ġdiners": 8739,
      "Ġplanters": 8740,
      "ĠMO": 8741,
      "ĠHappy": 8742,
      "ĠHolly": 8743,
      "Ġpecking": 8744,
      "Ġhost": 8745,
      "Ġspeckled": 8746,
      "bbled": 8747,
      "Ġsailors": 8748,
      "Ġflys": 8749,
      "Ġglobe": 8750,
      "Ġquar": 8751,
      "screen": 8752,
      "Ġcracker": 8753,
      "Ġrooster": 8754,
      "Ġcrop": 8755,
      "Ġterra": 8756,
      "Ġterrier": 8757,
      "ESS": 8758,
      "ORS": 8759,
      "Ġfighters": 8760,
      "Ġstradd": 8761,
      "Ġjean": 8762,
      "Ġcasually": 8763,
      "Ġlids": 8764,
      "Ġmedal": 8765,
      "Ġcharter": 8766,
      "Ġadjust": 8767,
      "Ġpetted": 8768,
      "Ġobserves": 8769,
      "Ġmattresses": 8770,
      "ptions": 8771,
      "Ġlimbs": 8772,
      "Ġprotect": 8773,
      "ADE": 8774,
      "Ġdispens": 8775,
      "Ġobstacles": 8776,
      "Airport": 8777,
      "Ġfestive": 8778,
      "ĠCOUNT": 8779,
      "Freshly": 8780,
      "Ġdetour": 8781,
      "Ġclustered": 8782,
      "Polar": 8783,
      "Ġostriches": 8784,
      "Ġdonkeys": 8785,
      "Ġgrasslands": 8786,
      "Ġtones": 8787,
      "Ġmember": 8788,
      "ĠThomas": 8789,
      "Ġaiming": 8790,
      "Trucks": 8791,
      "Construction": 8792,
      "Ġsidelines": 8793,
      "Ġviol": 8794,
      "Ġvibrant": 8795,
      "Ġmissed": 8796,
      "Ġpurchase": 8797,
      "ĠSHEEP": 8798,
      "ĠiPod": 8799,
      "Display": 8800,
      "Ġnibbling": 8801,
      "Ġannoun": 8802,
      "ĠKitty": 8803,
      "Doughnuts": 8804,
      "Ġprofile": 8805,
      "ĠVictorian": 8806,
      "Shirtless": 8807,
      "Ġcredit": 8808,
      "Shelves": 8809,
      "Dirty": 8810,
      "KES": 8811,
      "Nice": 8812,
      "Res": 8813,
      "TER": 8814,
      "bike": 8815,
      "dar": 8816,
      "eding": 8817,
      "gons": 8818,
      "lots": 8819,
      "west": 8820,
      "yon": 8821,
      "Ġarid": 8822,
      "Ġtater": 8823,
      "Ġslo": 8824,
      "Ġsings": 8825,
      "heye": 8826,
      "Ġpuffy": 8827,
      "Ġmm": 8828,
      "Ġmunching": 8829,
      "Ġhig": 8830,
      "Ġdw": 8831,
      "Ġditch": 8832,
      "Ġgum": 8833,
      "rapped": 8834,
      "unction": 8835,
      "Ġmanual": 8836,
      "oped": 8837,
      "ooh": 8838,
      "hern": 8839,
      "Ġskew": 8840,
      "Ġroyal": 8841,
      "Ġdoc": 8842,
      "Ġribs": 8843,
      "Ġchoo": 8844,
      "Ġraz": 8845,
      "stered": 8846,
      "Ġmotoc": 8847,
      "Ġsele": 8848,
      "Ġeatery": 8849,
      "Ġwagons": 8850,
      "Ġconcept": 8851,
      "ubway": 8852,
      "Ġslat": 8853,
      "Ġintensely": 8854,
      "Ġscaff": 8855,
      "Ġswirl": 8856,
      "ĠTALL": 8857,
      "Ġdiet": 8858,
      "Ġdiff": 8859,
      "ĠSox": 8860,
      "ressed": 8861,
      "ĠFULL": 8862,
      "ĠBost": 8863,
      "ĠOn": 8864,
      "acuzz": 8865,
      "ĠCent": 8866,
      "ĠCOR": 8867,
      "Ġguides": 8868,
      "Ġlooms": 8869,
      "Ġadding": 8870,
      "Ġaddress": 8871,
      "Ġembed": 8872,
      "ĠPizza": 8873,
      "ĠIs": 8874,
      "tened": 8875,
      "Ġpatches": 8876,
      "Ġbooze": 8877,
      "Ġordered": 8878,
      "ĠDri": 8879,
      "ĠDOU": 8880,
      "ĠHIM": 8881,
      "blem": 8882,
      "capped": 8883,
      "Ġfeather": 8884,
      "Ġstairwell": 8885,
      "ROSS": 8886,
      "Ġfav": 8887,
      "OWERS": 8888,
      "Ġseaweed": 8889,
      "Ġcircles": 8890,
      "Ġnaps": 8891,
      "Ġtwelve": 8892,
      "Ġvisiting": 8893,
      "Ġsprinkle": 8894,
      "Ġpresident": 8895,
      "Ġcelebrates": 8896,
      "Ġawkward": 8897,
      "Ġpetals": 8898,
      "Ġillustr": 8899,
      "Ġcliffs": 8900,
      "Ġgazebo": 8901,
      "Toddler": 8902,
      "Ġshutters": 8903,
      "Ġordering": 8904,
      "Ġmelting": 8905,
      "Ġarrives": 8906,
      "Ġalcoholic": 8907,
      "Ġinspects": 8908,
      "Ġpigs": 8909,
      "Ġsatell": 8910,
      "ĠALONG": 8911,
      "foil": 8912,
      "Ġcentury": 8913,
      "Ġmarshmall": 8914,
      "ulent": 8915,
      "hydrant": 8916,
      "Decorative": 8917,
      "Ġexercise": 8918,
      "Cupcakes": 8919,
      "Ġwildebeest": 8920,
      "Ġteacher": 8921,
      "zebras": 8922,
      "Ġtechnology": 8923,
      "Ġwaterskiing": 8924,
      "ĠHYDRANT": 8925,
      "Ġtoliet": 8926,
      "Ġparsley": 8927,
      "Ġconcerned": 8928,
      "Ġbadminton": 8929,
      "ĠBoston": 8930,
      "acuzzi": 8931,
      "30": 8932,
      "Both": 8933,
      "HIND": 8934,
      "KS": 8935,
      "Top": 8936,
      "Vases": 8937,
      "WALK": 8938,
      "ZING": 8939,
      "gh": 8940,
      "gran": 8941,
      "gira": 8942,
      "gien": 8943,
      "mit": 8944,
      "posed": 8945,
      "tHERE": 8946,
      "ucc": 8947,
      "vard": 8948,
      "Ġsipping": 8949,
      "Ġsomebody": 8950,
      "Ġprist": 8951,
      "ank": 8952,
      "reat": 8953,
      "Ġinn": 8954,
      "rom": 8955,
      "ism": 8956,
      "Ġwitha": 8957,
      "Ġdalmatian": 8958,
      "Ġgothic": 8959,
      "Ġstab": 8960,
      "oming": 8961,
      "esus": 8962,
      "ories": 8963,
      "Ġmanic": 8964,
      "Ġcoca": 8965,
      "Ġbeagle": 8966,
      "Ġeffic": 8967,
      "Ġkh": 8968,
      "Ġholing": 8969,
      "Ġshield": 8970,
      "Ġlaunching": 8971,
      "Ġyak": 8972,
      "Ġgrains": 8973,
      "Ġval": 8974,
      "Ġsnake": 8975,
      "Ġbubbles": 8976,
      "Ġpockets": 8977,
      "ief": 8978,
      "Ġsecl": 8979,
      "rang": 8980,
      "Ġoverfl": 8981,
      "Ġdesolate": 8982,
      "Ġslats": 8983,
      "ppers": 8984,
      "Ġtale": 8985,
      "Ġspilled": 8986,
      "Ġfireworks": 8987,
      "ĠTower": 8988,
      "ĠTrain": 8989,
      "Ġdips": 8990,
      "Ġcheer": 8991,
      "ipher": 8992,
      "ĠFrance": 8993,
      "Ġsloped": 8994,
      "ĠCHE": 8995,
      "ĠCUP": 8996,
      "Ġunpack": 8997,
      "Ġunident": 8998,
      "Ġhatch": 8999,
      "Ġstocking": 9000,
      "RESS": 9001,
      "Ġperipher": 9002,
      "Ġages": 9003,
      "pect": 9004,
      "Ġhomeless": 9005,
      "uded": 9006,
      "Ġallow": 9007,
      "Ġriverbank": 9008,
      "Ġrestaurants": 9009,
      "estaurant": 9010,
      "ools": 9011,
      "Ġpoll": 9012,
      "Ġrains": 9013,
      "ĠTHEM": 9014,
      "ĠMA": 9015,
      "Ġpanels": 9016,
      "ĠDunkin": 9017,
      "Ġpicket": 9018,
      "Ġexpla": 9019,
      "ĠGolden": 9020,
      "LED": 9021,
      "Ġspect": 9022,
      "rical": 9023,
      "ĠRd": 9024,
      "ĠEN": 9025,
      "ĠEl": 9026,
      "mingly": 9027,
      "Ġplacemat": 9028,
      "Ġcreamy": 9029,
      "Ġblenders": 9030,
      "Ġcrashes": 9031,
      "Ġcrashed": 9032,
      "Ġdelic": 9033,
      "Box": 9034,
      "Ġutil": 9035,
      "Ġdiscarded": 9036,
      "Ġinterview": 9037,
      "Ġsteaming": 9038,
      "Ġiphone": 9039,
      "plate": 9040,
      "plant": 9041,
      "Ġfocal": 9042,
      "ĠBEHIND": 9043,
      "ĠBUN": 9044,
      "Ġbaker": 9045,
      "Business": 9046,
      "Ġcombined": 9047,
      "Ġtinfoil": 9048,
      "Ġstrolling": 9049,
      "trucks": 9050,
      "Ġshakes": 9051,
      "Ġinfield": 9052,
      "Ġlobster": 9053,
      "Ġkeeping": 9054,
      "Ġmajestic": 9055,
      "Ġseaside": 9056,
      "Ġtissues": 9057,
      "Ġautomatic": 9058,
      "Ġyouths": 9059,
      "Silhou": 9060,
      "Ġfitted": 9061,
      "Ġtemple": 9062,
      "Ġpalace": 9063,
      "Ġperfectly": 9064,
      "rabilia": 9065,
      "Ġboulder": 9066,
      "Ġbushels": 9067,
      "Ġresemble": 9068,
      "ĠAPPLE": 9069,
      "horses": 9070,
      "Ġplums": 9071,
      "ĠSLOPE": 9072,
      "Ġetc": 9073,
      "Ġlandscaping": 9074,
      "Ġproudly": 9075,
      "Ġdeparting": 9076,
      "Ġivy": 9077,
      "Ġtilting": 9078,
      "Ġprotruding": 9079,
      "Ġabundance": 9080,
      "ĠMcDonald": 9081,
      "Ġplacid": 9082,
      "Ġaltitude": 9083,
      "Ġmemorabilia": 9084,
      "Ġreceipt": 9085,
      "Sepia": 9086,
      "icrowave": 9087,
      "ĠBMW": 9088,
      "Ġembedded": 9089,
      "20": 9090,
      "Bike": 9091,
      "Fans": 9092,
      "Fancy": 9093,
      "His": 9094,
      "Kite": 9095,
      "Met": 9096,
      "Most": 9097,
      "MENT": 9098,
      "ax": 9099,
      "aled": 9100,
      "away": 9101,
      "ailed": 9102,
      "bla": 9103,
      "cross": 9104,
      "cream": 9105,
      "different": 9106,
      "ointed": 9107,
      "picture": 9108,
      "rd": 9109,
      "snow": 9110,
      "tables": 9111,
      "inis": 9112,
      "Ġsen": 9113,
      "Ġsong": 9114,
      "Ġbris": 9115,
      "ange": 9116,
      "Ġinfront": 9117,
      "arat": 9118,
      "Ġdate": 9119,
      "Ġdude": 9120,
      "Ġgir": 9121,
      "Ġisn": 9122,
      "ashed": 9123,
      "opened": 9124,
      "Ġnecess": 9125,
      "usband": 9126,
      "igan": 9127,
      "Ġbeets": 9128,
      "Ġskill": 9129,
      "Ġec": 9130,
      "Ġreigns": 9131,
      "Their": 9132,
      "Ġshipping": 9133,
      "Ġtopless": 9134,
      "Ġchip": 9135,
      "Ġchases": 9136,
      "Ġflats": 9137,
      "Ġoutlet": 9138,
      "nished": 9139,
      "ainted": 9140,
      "Ġbuild": 9141,
      "Ġjuggling": 9142,
      "eeled": 9143,
      "Ġdisg": 9144,
      "ubby": 9145,
      "Ġsheared": 9146,
      "ĠAD": 9147,
      "Ġrushing": 9148,
      "Ġhandheld": 9149,
      "Ġmoved": 9150,
      "ĠTo": 9151,
      "ĠTUB": 9152,
      "Ġoffering": 9153,
      "dogs": 9154,
      "Ġapparent": 9155,
      "Ġapparat": 9156,
      "teen": 9157,
      "ourt": 9158,
      "ĠBOT": 9159,
      "ĠOriental": 9160,
      "Ġclump": 9161,
      "Ġuneaten": 9162,
      "Ġunattended": 9163,
      "Ġloads": 9164,
[...]
